#include "models/kws_pqt_int_model_mfcc10_nmels40_silence_unknown.h"

unsigned char kws_pqt_int_model_mfcc10_nmels40_silence_unknown[] = {
  0x1c, 0x00, 0x00, 0x00, 0x54, 0x46, 0x4c, 0x33, 0x14, 0x00, 0x20, 0x00,
  0x1c, 0x00, 0x18, 0x00, 0x14, 0x00, 0x10, 0x00, 0x0c, 0x00, 0x00, 0x00,
  0x08, 0x00, 0x04, 0x00, 0x14, 0x00, 0x00, 0x00, 0x1c, 0x00, 0x00, 0x00,
  0x84, 0x00, 0x00, 0x00, 0x04, 0x01, 0x00, 0x00, 0xac, 0x54, 0x00, 0x00,
  0xbc, 0x54, 0x00, 0x00, 0x64, 0x6e, 0x00, 0x00, 0x03, 0x00, 0x00, 0x00,
  0x01, 0x00, 0x00, 0x00, 0x04, 0x00, 0x00, 0x00, 0x1a, 0xaa, 0xff, 0xff,
  0x0c, 0x00, 0x00, 0x00, 0x1c, 0x00, 0x00, 0x00, 0x3c, 0x00, 0x00, 0x00,
  0x0f, 0x00, 0x00, 0x00, 0x73, 0x65, 0x72, 0x76, 0x69, 0x6e, 0x67, 0x5f,
  0x64, 0x65, 0x66, 0x61, 0x75, 0x6c, 0x74, 0x00, 0x01, 0x00, 0x00, 0x00,
  0x04, 0x00, 0x00, 0x00, 0x70, 0xff, 0xff, 0xff, 0x17, 0x00, 0x00, 0x00,
  0x04, 0x00, 0x00, 0x00, 0x08, 0x00, 0x00, 0x00, 0x6f, 0x75, 0x74, 0x70,
  0x75, 0x74, 0x5f, 0x30, 0x00, 0x00, 0x00, 0x00, 0x01, 0x00, 0x00, 0x00,
  0x04, 0x00, 0x00, 0x00, 0x22, 0xab, 0xff, 0xff, 0x04, 0x00, 0x00, 0x00,
  0x04, 0x00, 0x00, 0x00, 0x6d, 0x66, 0x63, 0x63, 0x00, 0x00, 0x00, 0x00,
  0x03, 0x00, 0x00, 0x00, 0x5c, 0x00, 0x00, 0x00, 0x2c, 0x00, 0x00, 0x00,
  0x04, 0x00, 0x00, 0x00, 0xb8, 0xff, 0xff, 0xff, 0x1b, 0x00, 0x00, 0x00,
  0x04, 0x00, 0x00, 0x00, 0x13, 0x00, 0x00, 0x00, 0x43, 0x4f, 0x4e, 0x56,
  0x45, 0x52, 0x53, 0x49, 0x4f, 0x4e, 0x5f, 0x4d, 0x45, 0x54, 0x41, 0x44,
  0x41, 0x54, 0x41, 0x00, 0xdc, 0xff, 0xff, 0xff, 0x1a, 0x00, 0x00, 0x00,
  0x04, 0x00, 0x00, 0x00, 0x13, 0x00, 0x00, 0x00, 0x6d, 0x69, 0x6e, 0x5f,
  0x72, 0x75, 0x6e, 0x74, 0x69, 0x6d, 0x65, 0x5f, 0x76, 0x65, 0x72, 0x73,
  0x69, 0x6f, 0x6e, 0x00, 0x08, 0x00, 0x0c, 0x00, 0x08, 0x00, 0x04, 0x00,
  0x08, 0x00, 0x00, 0x00, 0x19, 0x00, 0x00, 0x00, 0x04, 0x00, 0x00, 0x00,
  0x13, 0x00, 0x00, 0x00, 0x6d, 0x69, 0x6e, 0x5f, 0x72, 0x75, 0x6e, 0x74,
  0x69, 0x6d, 0x65, 0x5f, 0x76, 0x65, 0x72, 0x73, 0x69, 0x6f, 0x6e, 0x00,
  0x1c, 0x00, 0x00, 0x00, 0xa4, 0x53, 0x00, 0x00, 0x9c, 0x53, 0x00, 0x00,
  0x7c, 0x53, 0x00, 0x00, 0x64, 0x53, 0x00, 0x00, 0x44, 0x53, 0x00, 0x00,
  0x34, 0x52, 0x00, 0x00, 0x24, 0x51, 0x00, 0x00, 0x14, 0x19, 0x00, 0x00,
  0x84, 0x18, 0x00, 0x00, 0x74, 0x06, 0x00, 0x00, 0x24, 0x06, 0x00, 0x00,
  0x94, 0x01, 0x00, 0x00, 0x64, 0x01, 0x00, 0x00, 0x0c, 0x01, 0x00, 0x00,
  0x04, 0x01, 0x00, 0x00, 0xfc, 0x00, 0x00, 0x00, 0xf4, 0x00, 0x00, 0x00,
  0xec, 0x00, 0x00, 0x00, 0xe4, 0x00, 0x00, 0x00, 0xdc, 0x00, 0x00, 0x00,
  0xd4, 0x00, 0x00, 0x00, 0xcc, 0x00, 0x00, 0x00, 0xc4, 0x00, 0x00, 0x00,
  0xbc, 0x00, 0x00, 0x00, 0xb4, 0x00, 0x00, 0x00, 0x94, 0x00, 0x00, 0x00,
  0x74, 0x00, 0x00, 0x00, 0x04, 0x00, 0x00, 0x00, 0x2e, 0xac, 0xff, 0xff,
  0x04, 0x00, 0x00, 0x00, 0x60, 0x00, 0x00, 0x00, 0x0c, 0x00, 0x00, 0x00,
  0x08, 0x00, 0x0e, 0x00, 0x08, 0x00, 0x04, 0x00, 0x08, 0x00, 0x00, 0x00,
  0x10, 0x00, 0x00, 0x00, 0x28, 0x00, 0x00, 0x00, 0x00, 0x00, 0x06, 0x00,
  0x08, 0x00, 0x04, 0x00, 0x06, 0x00, 0x00, 0x00, 0x04, 0x00, 0x00, 0x00,
  0x01, 0x00, 0x00, 0x00, 0xeb, 0x03, 0x00, 0x00, 0x0c, 0x00, 0x18, 0x00,
  0x14, 0x00, 0x10, 0x00, 0x0c, 0x00, 0x04, 0x00, 0x0c, 0x00, 0x00, 0x00,
  0x39, 0x86, 0x21, 0x1a, 0xe4, 0xee, 0xdf, 0x0e, 0x01, 0x00, 0x00, 0x00,
  0x02, 0x00, 0x00, 0x00, 0x04, 0x00, 0x00, 0x00, 0x06, 0x00, 0x00, 0x00,
  0x32, 0x2e, 0x31, 0x38, 0x2e, 0x30, 0x00, 0x00, 0x9a, 0xac, 0xff, 0xff,
  0x04, 0x00, 0x00, 0x00, 0x10, 0x00, 0x00, 0x00, 0x00, 0x00, 0x00, 0x00,
  0x00, 0x00, 0x00, 0x00, 0x00, 0x00, 0x00, 0x00, 0x00, 0x00, 0x00, 0x00,
  0xb6, 0xac, 0xff, 0xff, 0x04, 0x00, 0x00, 0x00, 0x10, 0x00, 0x00, 0x00,
  0x31, 0x2e, 0x31, 0x34, 0x2e, 0x30, 0x00, 0x00, 0x00, 0x00, 0x00, 0x00,
  0x00, 0x00, 0x00, 0x00, 0x60, 0x94, 0xff, 0xff, 0x64, 0x94, 0xff, 0xff,
  0x68, 0x94, 0xff, 0xff, 0x6c, 0x94, 0xff, 0xff, 0x70, 0x94, 0xff, 0xff,
  0x74, 0x94, 0xff, 0xff, 0x78, 0x94, 0xff, 0xff, 0x7c, 0x94, 0xff, 0xff,
  0x80, 0x94, 0xff, 0xff, 0x84, 0x94, 0xff, 0xff, 0x88, 0x94, 0xff, 0xff,
  0xfe, 0xac, 0xff, 0xff, 0x04, 0x00, 0x00, 0x00, 0x48, 0x00, 0x00, 0x00,
  0x59, 0x94, 0x48, 0x3d, 0x4a, 0xc6, 0xbd, 0x7f, 0xbd, 0x44, 0x4b, 0x35,
  0xf8, 0xbb, 0xdb, 0xd3, 0x81, 0x2d, 0xa4, 0x96, 0x98, 0x81, 0xa0, 0xe6,
  0x2d, 0x1d, 0x02, 0xd0, 0x11, 0xde, 0x92, 0x81, 0x06, 0x43, 0x64, 0x2f,
  0x7f, 0x66, 0x7c, 0x9b, 0x57, 0x53, 0x46, 0x49, 0x2c, 0xd3, 0x8d, 0x3c,
  0x5b, 0x48, 0x6e, 0x40, 0x73, 0x81, 0x53, 0x57, 0x23, 0xb3, 0x81, 0x85,
  0xa7, 0xed, 0xf2, 0x82, 0x05, 0x92, 0x58, 0x60, 0x12, 0x81, 0x93, 0xfc,
  0x52, 0xad, 0xff, 0xff, 0x04, 0x00, 0x00, 0x00, 0x20, 0x00, 0x00, 0x00,
  0xc1, 0x02, 0x00, 0x00, 0xc8, 0xfa, 0xff, 0xff, 0x8f, 0xf6, 0xff, 0xff,
  0xf0, 0x03, 0x00, 0x00, 0xf7, 0x03, 0x00, 0x00, 0x84, 0xfc, 0xff, 0xff,
  0xb7, 0xf9, 0xff, 0xff, 0x4b, 0x00, 0x00, 0x00, 0x7e, 0xad, 0xff, 0xff,
  0x04, 0x00, 0x00, 0x00, 0x80, 0x04, 0x00, 0x00, 0xff, 0x14, 0xd0, 0x9a,
  0xfb, 0xd3, 0xee, 0xf0, 0x1b, 0xdc, 0x19, 0xad, 0x21, 0xb8, 0xc9, 0xf6,
  0xae, 0xab, 0x0a, 0x04, 0xef, 0x3d, 0xec, 0xb6, 0x13, 0x28, 0x36, 0x3b,
  0x47, 0xf9, 0xec, 0x35, 0x01, 0xee, 0x0b, 0xfe, 0x3a, 0x0d, 0x1e, 0x38,
  0xe7, 0x15, 0xec, 0x0b, 0x39, 0xaa, 0x40, 0xfa, 0xda, 0x5d, 0x1c, 0xdf,
  0x1f, 0xe9, 0x6a, 0x47, 0x81, 0x61, 0x41, 0x0d, 0xdb, 0x0a, 0x19, 0xf3,
  0xa3, 0x27, 0xf7, 0xf6, 0xeb, 0x03, 0xbc, 0x08, 0xf8, 0xcb, 0x2b, 0x1f,
  0xd7, 0x08, 0xf3, 0xc2, 0xc9, 0xca, 0x68, 0x38, 0x2a, 0x4a, 0xf9, 0x1f,
  0x13, 0x38, 0x1d, 0x0f, 0x57, 0x23, 0xd0, 0x06, 0xc7, 0x15, 0xfc, 0xf6,
  0xf8, 0x3d, 0xf7, 0x0d, 0xc8, 0x0c, 0xd0, 0xc9, 0xcb, 0x15, 0xe6, 0xf0,
  0xc4, 0x04, 0x3c, 0xf3, 0x25, 0xfd, 0x59, 0x2f, 0xab, 0x03, 0xd6, 0xba,
  0xe7, 0x17, 0xe9, 0x0f, 0xd8, 0x0d, 0x20, 0x10, 0xfb, 0xb9, 0x14, 0x12,
  0x81, 0xd5, 0x3e, 0x1d, 0xe3, 0xec, 0xf8, 0x34, 0x65, 0xeb, 0xa2, 0x92,
  0x9e, 0xd2, 0xf0, 0xe2, 0xe3, 0xdd, 0x81, 0x4d, 0xb4, 0x9e, 0x51, 0xd4,
  0x59, 0x62, 0xda, 0x35, 0x47, 0xc5, 0x02, 0x4a, 0x3a, 0x55, 0xd5, 0xcb,
  0x9c, 0xc1, 0x8b, 0x16, 0x2b, 0x43, 0xb3, 0xe5, 0x5a, 0x67, 0x1f, 0xe7,
  0x27, 0xf8, 0x8f, 0x5b, 0x8f, 0x50, 0x1b, 0x8e, 0x33, 0x52, 0x38, 0x3a,
  0x0a, 0xd2, 0xd4, 0x04, 0x4c, 0x5d, 0xbe, 0x12, 0x0e, 0xba, 0x23, 0x43,
  0x75, 0x55, 0x96, 0x44, 0xfc, 0xc2, 0x51, 0x7b, 0x6b, 0xcf, 0xbc, 0xb4,
  0x1f, 0x4c, 0x06, 0x52, 0x29, 0xe2, 0xf8, 0x0f, 0x1e, 0xb6, 0xbb, 0xef,
  0x73, 0xda, 0x96, 0x37, 0xdd, 0x2a, 0x46, 0x50, 0xc1, 0xcc, 0xfc, 0x40,
  0xe5, 0xdb, 0xa9, 0x14, 0x37, 0x14, 0xbf, 0x2d, 0x4e, 0xcf, 0xa0, 0x55,
  0x5f, 0x19, 0xbb, 0x35, 0xfd, 0xda, 0xab, 0xeb, 0x7f, 0x92, 0x19, 0x0d,
  0x54, 0x05, 0xdc, 0xec, 0xc3, 0xc2, 0xde, 0xd1, 0x00, 0x2b, 0xdc, 0x51,
  0x0a, 0xe3, 0x1a, 0xf9, 0x54, 0x49, 0xfa, 0xd7, 0x6b, 0x13, 0x12, 0xde,
  0xad, 0x12, 0xdf, 0x0b, 0x42, 0xcf, 0xea, 0x1d, 0xff, 0x51, 0xd7, 0xd1,
  0x59, 0x26, 0xf1, 0x4c, 0xcf, 0x06, 0xaa, 0x65, 0x40, 0xcb, 0xd8, 0x33,
  0x29, 0x58, 0xa1, 0x45, 0xb3, 0x76, 0x5e, 0x90, 0xda, 0xb6, 0xe8, 0xb2,
  0x2e, 0xbc, 0xa0, 0xaf, 0xff, 0xca, 0x24, 0xf1, 0x02, 0x4d, 0xe1, 0x41,
  0x28, 0x0a, 0x05, 0x32, 0xff, 0xf0, 0xab, 0x50, 0x3b, 0x61, 0x81, 0x9d,
  0x52, 0x02, 0x06, 0x33, 0x53, 0x47, 0xca, 0xe9, 0xec, 0x05, 0xe6, 0xd9,
  0x19, 0x1e, 0xe5, 0xb4, 0xf7, 0xbc, 0xe4, 0xe1, 0xb7, 0x10, 0xd7, 0x13,
  0x1e, 0xd7, 0x20, 0xc9, 0x02, 0xbc, 0xe2, 0xec, 0xce, 0xec, 0x42, 0x30,
  0xdb, 0x9a, 0x5d, 0x41, 0x81, 0x1b, 0x0f, 0x58, 0xf4, 0xa1, 0x4c, 0x43,
  0xb9, 0xeb, 0x22, 0x59, 0x20, 0xc4, 0x3e, 0x15, 0xd3, 0x3c, 0xf4, 0xd0,
  0xef, 0x0d, 0x47, 0xfb, 0xac, 0x15, 0x51, 0x1d, 0x36, 0xdf, 0x1a, 0x38,
  0xf9, 0xf6, 0xe9, 0xf6, 0xee, 0x2e, 0x04, 0x0f, 0xb3, 0xd0, 0xf0, 0x2f,
  0xb7, 0xc9, 0x07, 0x88, 0xab, 0x21, 0x30, 0x00, 0x32, 0xc9, 0xec, 0xbb,
  0x12, 0x4f, 0x2a, 0x33, 0xd1, 0xdb, 0x14, 0xad, 0x4b, 0xe1, 0x18, 0x1b,
  0x36, 0x49, 0xc2, 0x0d, 0x50, 0xab, 0x28, 0xd8, 0x5e, 0xe4, 0xb5, 0xf1,
  0xdb, 0x12, 0x5a, 0x40, 0x4c, 0x30, 0x81, 0xc5, 0x2d, 0x75, 0xe0, 0x2c,
  0x00, 0xf0, 0x06, 0xc8, 0xf2, 0x44, 0x19, 0xe3, 0x01, 0xef, 0x5b, 0xfe,
  0xfe, 0x35, 0xbe, 0xd5, 0x3d, 0x1f, 0x24, 0x36, 0x34, 0xed, 0xc3, 0x38,
  0x65, 0x02, 0x38, 0xd5, 0x73, 0x66, 0x81, 0xe2, 0x50, 0x55, 0xcb, 0x6a,
  0xca, 0xac, 0x3e, 0xa3, 0xbc, 0xb0, 0x41, 0xba, 0xda, 0xd3, 0x5c, 0x54,
  0xf9, 0xda, 0x00, 0x0a, 0xcc, 0x31, 0x56, 0xf2, 0xda, 0xca, 0x15, 0xe7,
  0xb7, 0x18, 0xf5, 0xb7, 0xa2, 0xaf, 0xb8, 0xc4, 0x3c, 0xf1, 0xa9, 0xb0,
  0xf5, 0xe9, 0x67, 0xfc, 0xc0, 0xfa, 0x10, 0x37, 0xf5, 0x3d, 0xd1, 0x1f,
  0xfb, 0x1a, 0xa8, 0x27, 0xed, 0xc2, 0xad, 0x9f, 0x5b, 0xbf, 0xfc, 0xde,
  0x49, 0x27, 0xea, 0x09, 0xe6, 0x24, 0x39, 0x6d, 0xdd, 0x85, 0xff, 0x18,
  0x33, 0x3b, 0x36, 0x53, 0xbd, 0x10, 0xf9, 0x4e, 0x3d, 0xeb, 0xb1, 0xa4,
  0x28, 0xdc, 0xf6, 0x54, 0x25, 0x14, 0xf9, 0xb2, 0x3b, 0x5c, 0xc3, 0x41,
  0xc2, 0x1a, 0x02, 0xde, 0x27, 0x28, 0x98, 0x5b, 0x2a, 0xdf, 0xf7, 0x02,
  0x54, 0x35, 0xc6, 0x08, 0x2a, 0x2f, 0x9c, 0xf0, 0xda, 0xb5, 0xc2, 0x1f,
  0xd8, 0x7f, 0x59, 0xe2, 0xbf, 0xa7, 0x21, 0x1d, 0xad, 0xd9, 0x2f, 0xe8,
  0x38, 0xbf, 0x4c, 0xa7, 0xfa, 0x1b, 0x35, 0x14, 0x1d, 0xde, 0xa8, 0x91,
  0xfb, 0xdf, 0xc6, 0xcd, 0x14, 0x11, 0xe8, 0x9c, 0xe3, 0x7d, 0x2d, 0xe5,
  0xd7, 0x69, 0x52, 0x5d, 0x1f, 0x33, 0xc3, 0x04, 0x20, 0x3f, 0x06, 0xf1,
  0xe4, 0x09, 0x0d, 0xf8, 0xfe, 0xf4, 0xd8, 0x28, 0xeb, 0xae, 0x7f, 0x36,
  0xd2, 0x19, 0xe8, 0xe4, 0x9e, 0xe9, 0x6f, 0x23, 0xc1, 0x14, 0x0e, 0x56,
  0xc8, 0xb7, 0xed, 0x03, 0x3d, 0xd6, 0xfd, 0xd3, 0x52, 0xfb, 0x82, 0xbe,
  0x7f, 0x2a, 0x07, 0x12, 0x31, 0x36, 0x04, 0xe8, 0x51, 0x02, 0x1a, 0xb9,
  0x0a, 0x36, 0xb0, 0xf9, 0x2f, 0x56, 0x14, 0x30, 0x17, 0x34, 0xef, 0xd2,
  0x0d, 0xd0, 0xe7, 0x25, 0xdf, 0x28, 0xeb, 0xd8, 0x0e, 0x3b, 0xed, 0xb3,
  0x33, 0x0d, 0xae, 0xf6, 0x4c, 0x08, 0xb1, 0xd2, 0xb1, 0xbf, 0x10, 0x2c,
  0xbf, 0x08, 0x29, 0xe2, 0xbf, 0x00, 0x33, 0xf2, 0xf4, 0x41, 0x09, 0x0b,
  0x1a, 0x14, 0xe2, 0x1a, 0x37, 0x04, 0xd5, 0xca, 0x08, 0xbf, 0xf9, 0xd5,
  0xe8, 0xb6, 0xf4, 0x30, 0x9d, 0xc3, 0xdd, 0xef, 0x81, 0x9e, 0x19, 0xea,
  0xef, 0xeb, 0x0a, 0x03, 0xa7, 0xbe, 0x1f, 0xf2, 0x31, 0x59, 0x85, 0x38,
  0x3b, 0xe2, 0xef, 0xfd, 0x28, 0x40, 0xf8, 0xdf, 0x26, 0xbb, 0x30, 0x48,
  0x06, 0x48, 0xb3, 0x11, 0x22, 0xe5, 0xf9, 0x02, 0xf9, 0x29, 0x10, 0xd7,
  0xf4, 0x47, 0xb5, 0x5c, 0x42, 0xf8, 0x20, 0xd5, 0x00, 0x2c, 0xe1, 0x28,
  0x1c, 0x01, 0x0d, 0x09, 0xc9, 0x0d, 0xc9, 0x58, 0x46, 0xe4, 0xe3, 0xaa,
  0xf6, 0xc5, 0xff, 0xe0, 0x1f, 0x28, 0xf4, 0xdb, 0xc2, 0x43, 0xf5, 0xd2,
  0x63, 0xef, 0x81, 0xc6, 0xd0, 0x03, 0xba, 0xdf, 0x64, 0x1e, 0xe9, 0x1c,
  0x3b, 0xf4, 0xf3, 0xae, 0x6a, 0x6b, 0xbf, 0x98, 0x50, 0x42, 0x1b, 0x3e,
  0x02, 0x5f, 0x99, 0x11, 0x1a, 0xd7, 0x48, 0x00, 0x20, 0xbb, 0x45, 0x6f,
  0xe1, 0x0c, 0x02, 0x14, 0xcb, 0x06, 0x09, 0x1c, 0xc8, 0xb5, 0x3b, 0xd1,
  0x4e, 0x2b, 0xe8, 0xdc, 0xc4, 0xc4, 0x14, 0xe2, 0x4f, 0xd6, 0xe9, 0xce,
  0x75, 0x14, 0xbc, 0xd3, 0x2c, 0xc1, 0x46, 0x2d, 0xf9, 0x44, 0xa0, 0x08,
  0x19, 0x2f, 0x19, 0x06, 0xf5, 0x03, 0x10, 0xc5, 0xb6, 0xe1, 0xfe, 0xea,
  0x10, 0xbb, 0x47, 0xc6, 0x0d, 0x58, 0xe2, 0x31, 0x22, 0xc0, 0x29, 0xa1,
  0xc4, 0xfd, 0x1c, 0xbe, 0xa9, 0xbb, 0x2f, 0x45, 0xff, 0xd1, 0x4f, 0x2d,
  0x1a, 0x1d, 0x0b, 0x17, 0xa1, 0xb2, 0x7f, 0x26, 0x08, 0xb8, 0x50, 0xdc,
  0xf8, 0x0f, 0x63, 0x3b, 0xce, 0xfd, 0xe0, 0xde, 0x13, 0xbb, 0x1d, 0x17,
  0x48, 0xc8, 0xc7, 0x5b, 0xa8, 0x4a, 0x19, 0x46, 0x39, 0x91, 0x61, 0x37,
  0xb8, 0x1e, 0x26, 0xf5, 0x52, 0x9d, 0x22, 0xf0, 0xea, 0xba, 0x5d, 0x4b,
  0xe4, 0x25, 0x06, 0x08, 0xb4, 0xce, 0x30, 0x1f, 0xd8, 0xf9, 0xea, 0x54,
  0x82, 0x40, 0x55, 0xef, 0x39, 0xe9, 0xdc, 0x2b, 0x94, 0xae, 0x25, 0x1b,
  0x14, 0xd2, 0xf7, 0xd9, 0x81, 0xf0, 0x3c, 0x2d, 0xfe, 0x2e, 0x5c, 0x1b,
  0x00, 0xe8, 0x6b, 0x66, 0x29, 0xb7, 0x63, 0xfb, 0x3c, 0x22, 0xb9, 0x5f,
  0x1b, 0xfa, 0xd3, 0xe6, 0x61, 0xf1, 0x4d, 0xc6, 0xad, 0xf0, 0xf3, 0x01,
  0xff, 0x48, 0x9d, 0xfb, 0xcd, 0xbd, 0x3d, 0xfe, 0xcd, 0xf4, 0x1b, 0x35,
  0xdb, 0xf2, 0x11, 0x20, 0x69, 0xde, 0xad, 0x1b, 0xbb, 0x0e, 0x22, 0xda,
  0x47, 0x45, 0xe9, 0xc8, 0x30, 0xdc, 0x48, 0xe4, 0x56, 0x05, 0x39, 0xf6,
  0xfc, 0xf8, 0xf4, 0x1d, 0xea, 0xc0, 0xf9, 0xff, 0xe5, 0x64, 0x33, 0x6b,
  0x7f, 0x14, 0xca, 0x2f, 0x04, 0x0c, 0xa1, 0x36, 0x0a, 0xb2, 0xff, 0xff,
  0x04, 0x00, 0x00, 0x00, 0x40, 0x00, 0x00, 0x00, 0x12, 0x01, 0x00, 0x00,
  0x57, 0xfd, 0xff, 0xff, 0xb9, 0xfb, 0xff, 0xff, 0x30, 0x02, 0x00, 0x00,
  0x81, 0xfd, 0xff, 0xff, 0xa0, 0x02, 0x00, 0x00, 0xe9, 0xfe, 0xff, 0xff,
  0x3a, 0xfe, 0xff, 0xff, 0xd3, 0xfa, 0xff, 0xff, 0x5e, 0x01, 0x00, 0x00,
  0x8f, 0xfe, 0xff, 0xff, 0x24, 0xfd, 0xff, 0xff, 0x58, 0x00, 0x00, 0x00,
  0x64, 0x01, 0x00, 0x00, 0x02, 0xfb, 0xff, 0xff, 0x19, 0xfe, 0xff, 0xff,
  0x56, 0xb2, 0xff, 0xff, 0x04, 0x00, 0x00, 0x00, 0x00, 0x12, 0x00, 0x00,
  0x32, 0xbe, 0x64, 0x11, 0x06, 0xd6, 0x60, 0x21, 0x1a, 0x25, 0xd9, 0x3b,
  0xd2, 0x15, 0x1a, 0x13, 0xff, 0x07, 0x4b, 0x38, 0x28, 0xa4, 0x44, 0x34,
  0x1b, 0x0d, 0xce, 0x3b, 0x01, 0xb4, 0xa9, 0x48, 0x20, 0xed, 0x47, 0x3d,
  0x53, 0x0b, 0xf9, 0x18, 0x17, 0xae, 0x29, 0x5f, 0x04, 0xbd, 0xae, 0x3e,
  0x26, 0x26, 0x6f, 0x20, 0x3a, 0xa9, 0xdc, 0x99, 0x06, 0xbd, 0x1e, 0xd3,
  0x74, 0xfe, 0xa4, 0x30, 0xf9, 0xa1, 0x7f, 0xd6, 0x2a, 0x03, 0xec, 0xc6,
  0x16, 0xa1, 0xd4, 0xe5, 0x46, 0x3b, 0x82, 0x04, 0xbc, 0x20, 0x69, 0xfb,
  0x42, 0xd6, 0xb3, 0xe2, 0x08, 0xb3, 0x51, 0xc1, 0xf0, 0xc5, 0x11, 0x41,
  0x2c, 0x12, 0xc0, 0x01, 0xd7, 0x30, 0x18, 0xc2, 0xca, 0xd5, 0x00, 0xdc,
  0x14, 0xe5, 0xf8, 0xae, 0x38, 0x1f, 0x29, 0xb1, 0x25, 0xad, 0xd6, 0xbb,
  0x11, 0x40, 0x05, 0x2b, 0xe3, 0xc2, 0x04, 0x05, 0xed, 0xae, 0xf3, 0xce,
  0x28, 0x25, 0xd5, 0xd8, 0xfb, 0xab, 0xb8, 0x07, 0xbb, 0xf0, 0xbe, 0xcc,
  0xd3, 0x02, 0x2b, 0x21, 0x18, 0xf1, 0xd4, 0xd8, 0xc6, 0x55, 0xc1, 0x47,
  0x07, 0xf2, 0x05, 0xcd, 0xfc, 0xea, 0xfb, 0x1a, 0xff, 0x9e, 0xfe, 0x1e,
  0x92, 0x02, 0x3a, 0xdf, 0x27, 0xa5, 0x07, 0x9c, 0x16, 0xf8, 0x06, 0xde,
  0xc9, 0xa1, 0xad, 0xba, 0xb6, 0xfb, 0x10, 0xbc, 0xba, 0xb2, 0xe2, 0x90,
  0xdf, 0xdf, 0xc2, 0x3b, 0x51, 0xcb, 0x2a, 0x16, 0xdc, 0x20, 0x65, 0x1b,
  0x2c, 0xd5, 0x18, 0xb2, 0x2d, 0xc0, 0xf4, 0x1b, 0x20, 0x83, 0xf3, 0x0b,
  0xf1, 0x6f, 0x0f, 0x05, 0x29, 0xe8, 0xc1, 0xdc, 0x29, 0xe4, 0xf3, 0x0c,
  0xf0, 0x09, 0x29, 0xcb, 0xc0, 0x2c, 0x4b, 0xe2, 0x3b, 0xca, 0xc7, 0x00,
  0x4b, 0x1f, 0xdd, 0x1c, 0xbe, 0x34, 0x21, 0xf3, 0x0a, 0x6c, 0xd8, 0xe9,
  0x5d, 0x43, 0x6f, 0xd2, 0x41, 0x5f, 0x3f, 0x04, 0x1a, 0x49, 0xc8, 0x16,
  0x08, 0x7f, 0x5c, 0x17, 0x19, 0x13, 0x49, 0x12, 0x04, 0x06, 0xb7, 0xc0,
  0xaa, 0x34, 0xdf, 0x4a, 0xe5, 0x58, 0xe6, 0x1a, 0xc4, 0x0f, 0x43, 0xaa,
  0xcb, 0x43, 0xae, 0xdc, 0xc5, 0x4e, 0xb6, 0x4b, 0x3c, 0xd1, 0xb9, 0xd4,
  0xc8, 0xe5, 0x10, 0xc8, 0x42, 0xe2, 0xd3, 0x1a, 0xe6, 0x0b, 0x36, 0x07,
  0xee, 0xd6, 0x23, 0x2c, 0x0c, 0x16, 0x37, 0x0c, 0x3b, 0xda, 0x06, 0x4f,
  0x42, 0xba, 0x20, 0x4e, 0x3a, 0xc3, 0x7f, 0x9e, 0xff, 0x0b, 0xcb, 0xea,
  0xc1, 0x12, 0xba, 0x3c, 0xed, 0xec, 0xd9, 0xcd, 0x21, 0x03, 0xc4, 0xcd,
  0xc3, 0x19, 0xeb, 0xdb, 0x2c, 0x5f, 0x1d, 0xdc, 0xa5, 0x30, 0xdd, 0xe6,
  0xc8, 0x20, 0x06, 0x00, 0xe4, 0x07, 0x6f, 0x96, 0x50, 0x1d, 0x24, 0xc4,
  0xf1, 0x53, 0x3d, 0xd0, 0x11, 0x71, 0xe6, 0x1f, 0x0e, 0xff, 0xea, 0xcc,
  0xc5, 0xd3, 0x11, 0xfa, 0xbf, 0xbe, 0x2b, 0xbc, 0xe1, 0xf1, 0x23, 0xc8,
  0xb7, 0xe3, 0x09, 0xd6, 0xd9, 0xa4, 0xdc, 0x04, 0xe5, 0xdd, 0xd8, 0x1a,
  0xfa, 0x2d, 0xc7, 0xf0, 0x07, 0xff, 0xda, 0x23, 0xb8, 0xef, 0xea, 0xe1,
  0x0a, 0xb6, 0xe8, 0x45, 0xdd, 0x0d, 0x22, 0x00, 0xfb, 0xf0, 0xab, 0x0f,
  0xd1, 0x94, 0xe3, 0x0a, 0x1b, 0xfb, 0x26, 0xfb, 0x21, 0x02, 0x0a, 0x34,
  0xde, 0xf4, 0xdb, 0xe1, 0xf5, 0xbc, 0x34, 0x34, 0xdb, 0xfd, 0x24, 0x18,
  0x45, 0xd0, 0x0f, 0x31, 0xea, 0xb6, 0xd3, 0x4d, 0x15, 0xd4, 0x3d, 0x15,
  0xd7, 0xea, 0xf6, 0x13, 0x1c, 0xff, 0x0d, 0x5c, 0xeb, 0xd5, 0x1b, 0x41,
  0x24, 0xd8, 0x0d, 0x12, 0xce, 0xf8, 0xb5, 0xee, 0xfd, 0x17, 0x15, 0x31,
  0x35, 0xff, 0xea, 0x0f, 0x24, 0x2e, 0x28, 0x06, 0xe9, 0x31, 0xa0, 0xdf,
  0x00, 0x41, 0x11, 0xe7, 0xf2, 0x11, 0x09, 0x29, 0x22, 0xc9, 0x1d, 0xdb,
  0xd8, 0x0e, 0x81, 0xb7, 0x39, 0x14, 0xfc, 0x06, 0x24, 0x4b, 0xe8, 0x43,
  0x16, 0xfe, 0xed, 0xd6, 0xdd, 0x08, 0xf5, 0x07, 0xb8, 0xe5, 0x07, 0x14,
  0xae, 0x08, 0xd8, 0xf5, 0xfa, 0x05, 0xde, 0xed, 0x10, 0x00, 0xeb, 0xf6,
  0xe5, 0x31, 0x2a, 0x3b, 0xd5, 0x1e, 0xf6, 0xdd, 0xeb, 0x10, 0x15, 0x0e,
  0x08, 0xd1, 0x12, 0xd6, 0x19, 0xe6, 0x2c, 0x59, 0xc6, 0xaf, 0x35, 0xf5,
  0x24, 0x24, 0x35, 0x39, 0xd5, 0x92, 0x19, 0x04, 0x03, 0x68, 0x3f, 0x3f,
  0x53, 0x1f, 0xe0, 0x0e, 0xd4, 0xdd, 0xea, 0xed, 0xd6, 0x90, 0xf8, 0xf5,
  0x06, 0x7f, 0x14, 0x20, 0x37, 0xf0, 0x17, 0xed, 0x3c, 0xd3, 0x1f, 0xfc,
  0xe9, 0xaa, 0x65, 0xfc, 0x27, 0x30, 0x46, 0xee, 0x4c, 0xe2, 0xe1, 0x1e,
  0x29, 0x3a, 0x2d, 0xde, 0x06, 0xee, 0xf5, 0xd5, 0x50, 0xaf, 0xf3, 0xfd,
  0x4c, 0x28, 0x0c, 0xee, 0x32, 0xd3, 0x23, 0x00, 0x12, 0xec, 0xcf, 0x26,
  0x2e, 0xb3, 0xce, 0xef, 0x33, 0x19, 0xd3, 0x0b, 0x13, 0x04, 0x3a, 0xff,
  0xfe, 0x2b, 0x00, 0xa7, 0xe6, 0xfa, 0xf7, 0xca, 0xdf, 0x4c, 0xd2, 0x53,
  0xf7, 0xf8, 0xf9, 0xec, 0xd7, 0x26, 0xf8, 0x3b, 0x00, 0x14, 0xd9, 0xf9,
  0x1b, 0x39, 0xb7, 0x1a, 0xd3, 0xc5, 0xeb, 0x0e, 0xb6, 0xe5, 0xe2, 0xe6,
  0xc5, 0x28, 0xc6, 0xcf, 0xea, 0xdf, 0xde, 0xfd, 0x0d, 0xd8, 0x0d, 0x02,
  0xd2, 0x1b, 0xd8, 0x3b, 0x1f, 0xf1, 0xcd, 0x1d, 0x11, 0x31, 0xcf, 0xf1,
  0xff, 0xcf, 0xc7, 0xe0, 0xbe, 0x15, 0x30, 0xda, 0x24, 0x6c, 0xd8, 0x2d,
  0xd1, 0xd8, 0xde, 0xcb, 0x1f, 0x95, 0xb3, 0x1d, 0xce, 0x81, 0xf0, 0x1a,
  0xeb, 0xdf, 0x3a, 0x1f, 0x31, 0xad, 0x11, 0x06, 0x36, 0x24, 0x1b, 0x42,
  0x33, 0xc3, 0x55, 0xc9, 0xaf, 0x56, 0x36, 0x34, 0x31, 0x36, 0x34, 0xbf,
  0xf5, 0x02, 0x21, 0x30, 0xae, 0x64, 0x10, 0x0d, 0xfd, 0xd2, 0x20, 0x2a,
  0x26, 0x05, 0x45, 0x08, 0xd9, 0x19, 0xc0, 0xa6, 0xfe, 0x3c, 0x3a, 0x57,
  0x18, 0x4d, 0xb4, 0xc1, 0x38, 0x31, 0x09, 0xc3, 0xe1, 0x49, 0x2b, 0xcd,
  0xac, 0x47, 0x0f, 0x41, 0x00, 0x63, 0xb6, 0xfe, 0x13, 0x56, 0x4e, 0xa3,
  0xfb, 0xfd, 0xb3, 0x0b, 0x40, 0xce, 0xf9, 0x18, 0xba, 0xde, 0x06, 0xc2,
  0xc6, 0x51, 0xeb, 0xb1, 0xaf, 0x18, 0xd4, 0x13, 0x0d, 0x32, 0xea, 0xc0,
  0xb0, 0xfc, 0x12, 0xc3, 0xf0, 0xe8, 0xad, 0xd0, 0xfe, 0xd4, 0xbc, 0xbe,
  0xcf, 0x44, 0x44, 0xe5, 0xc5, 0x00, 0x19, 0x39, 0x02, 0xcb, 0x05, 0xe7,
  0x1f, 0xa1, 0xb9, 0xca, 0xba, 0x18, 0x0c, 0xf2, 0xac, 0x1f, 0xaf, 0xac,
  0xb5, 0xe4, 0xcb, 0x09, 0xa2, 0x16, 0xb3, 0x20, 0xbd, 0xc6, 0x0e, 0x31,
  0x24, 0xda, 0xd4, 0xa8, 0xb7, 0xed, 0xcf, 0xdc, 0xc4, 0xa9, 0xb1, 0xe4,
  0xc1, 0xe3, 0x0d, 0xe7, 0xf4, 0xd3, 0x13, 0xf9, 0xf3, 0xaa, 0xb7, 0xda,
  0x10, 0xf2, 0x23, 0xf6, 0xbe, 0xab, 0xd8, 0xa1, 0x19, 0x18, 0x3f, 0x65,
  0x4b, 0x55, 0x00, 0xcf, 0x09, 0xe1, 0xb6, 0xda, 0xc2, 0x8f, 0xd4, 0xe3,
  0x40, 0x21, 0x3e, 0x6f, 0xf4, 0xf6, 0x0c, 0xa6, 0x23, 0xbc, 0x0e, 0x46,
  0xde, 0xd6, 0x06, 0xdc, 0x1d, 0x7f, 0x38, 0xff, 0x65, 0xa6, 0x56, 0xb7,
  0x2c, 0x19, 0x17, 0xfc, 0xfb, 0x21, 0x31, 0x76, 0x15, 0x41, 0x02, 0x48,
  0xd0, 0xcd, 0x00, 0xb3, 0xef, 0x57, 0x1c, 0xde, 0xe9, 0x2d, 0x20, 0x30,
  0x21, 0xbe, 0x25, 0x47, 0x16, 0xed, 0xaf, 0xae, 0xfa, 0x2a, 0xfa, 0xef,
  0xaf, 0x2e, 0x17, 0x9b, 0x02, 0x4c, 0xbe, 0x19, 0xf8, 0x43, 0x07, 0xbc,
  0xf1, 0xaf, 0xca, 0xe7, 0x1b, 0x05, 0xad, 0x31, 0x1b, 0xe7, 0xdb, 0x11,
  0x35, 0x06, 0x0c, 0xe7, 0x05, 0x17, 0xbd, 0xed, 0xe0, 0xc1, 0xc3, 0xe8,
  0xcc, 0x1f, 0xbf, 0xc5, 0xcd, 0xe4, 0xbd, 0x14, 0xc3, 0xf9, 0xf5, 0xbd,
  0xd9, 0x09, 0xce, 0x18, 0xec, 0xc7, 0xf8, 0xe0, 0x1e, 0xe7, 0xb8, 0xc6,
  0x14, 0xf3, 0xd5, 0x37, 0x50, 0xfd, 0xcb, 0x1c, 0x1b, 0xe7, 0x67, 0x5d,
  0x2b, 0xf5, 0xed, 0xfe, 0x2e, 0xcf, 0x1d, 0x1c, 0x09, 0x10, 0xa5, 0x3e,
  0x4d, 0x23, 0xef, 0xfc, 0xfa, 0x91, 0x12, 0x09, 0x29, 0x0f, 0xf5, 0xd0,
  0xf4, 0x77, 0xc3, 0x04, 0x0f, 0xce, 0xec, 0x12, 0xdb, 0x0d, 0x1b, 0x20,
  0x58, 0x4f, 0x37, 0x29, 0x45, 0x05, 0xdf, 0x8e, 0xc0, 0x7f, 0x54, 0x11,
  0x5e, 0xf7, 0x59, 0x23, 0xf0, 0xb0, 0xf7, 0x2a, 0xf5, 0x0b, 0x08, 0x0a,
  0xfe, 0x49, 0x4c, 0xb8, 0x35, 0xe4, 0x3f, 0xe6, 0x13, 0xf3, 0xbd, 0x1d,
  0x08, 0xbd, 0x1e, 0x04, 0x22, 0x04, 0x2f, 0x20, 0xcd, 0xda, 0xee, 0x3a,
  0x43, 0x9d, 0x45, 0x4d, 0x49, 0xc9, 0x14, 0x59, 0x65, 0xe0, 0x1c, 0x27,
  0x4c, 0xf8, 0x21, 0x1f, 0xcb, 0xad, 0x3f, 0x31, 0x22, 0x38, 0xfc, 0x1f,
  0xe8, 0xce, 0xc2, 0x5a, 0xea, 0xc6, 0xf4, 0x57, 0x4c, 0x9d, 0xf2, 0xeb,
  0x08, 0x2b, 0x55, 0x1d, 0x41, 0xce, 0xbd, 0x50, 0x4d, 0x06, 0x0c, 0x69,
  0xc3, 0xbd, 0x55, 0x2f, 0x44, 0x17, 0xf4, 0x82, 0x06, 0xcc, 0x00, 0xe6,
  0xff, 0x3a, 0x27, 0x2a, 0xf4, 0xc1, 0x18, 0x3c, 0xe0, 0xd4, 0xd2, 0xe1,
  0x07, 0xfc, 0x46, 0x7f, 0x14, 0xf9, 0x06, 0x54, 0x0c, 0xe0, 0xfe, 0xce,
  0x29, 0xd2, 0x98, 0x31, 0xed, 0xeb, 0x3b, 0xd9, 0x02, 0x18, 0xe8, 0x2f,
  0xbc, 0xda, 0xe9, 0xbf, 0xf9, 0xbc, 0xd8, 0xc0, 0xad, 0xd5, 0xd9, 0xe1,
  0x22, 0x12, 0xc7, 0xb4, 0xd5, 0xe3, 0x44, 0xd3, 0x2f, 0x23, 0xbe, 0xb6,
  0x17, 0x18, 0x40, 0x2c, 0xf8, 0x18, 0xe3, 0xcc, 0xea, 0x3a, 0x14, 0xbc,
  0xcf, 0xeb, 0x05, 0x1c, 0xf7, 0x05, 0xfe, 0x0e, 0x06, 0xd6, 0xf4, 0xf8,
  0x15, 0xe1, 0x70, 0xaf, 0x35, 0xd0, 0x62, 0xe1, 0x16, 0x62, 0x0d, 0xdf,
  0x0f, 0xd4, 0xf8, 0x33, 0x0e, 0x21, 0x73, 0xc6, 0xb8, 0x98, 0x4e, 0x1e,
  0xdc, 0x7f, 0x15, 0x3c, 0x35, 0xd1, 0xbe, 0xa9, 0x21, 0x9a, 0xef, 0x12,
  0xe1, 0xc8, 0x36, 0x53, 0xe5, 0x4a, 0x3b, 0x59, 0x3f, 0x06, 0x08, 0xcf,
  0x38, 0xb9, 0x56, 0xf9, 0xdc, 0xef, 0x33, 0x72, 0x32, 0xd6, 0xfd, 0x17,
  0xfa, 0x0b, 0xcd, 0x0f, 0xe9, 0xb8, 0xe0, 0x0a, 0x05, 0xd5, 0xfc, 0x57,
  0xf2, 0xd5, 0x37, 0x36, 0x53, 0x2f, 0xda, 0x2c, 0xc3, 0xd5, 0x48, 0x04,
  0x03, 0xd2, 0xd4, 0x24, 0x13, 0xce, 0x45, 0xc4, 0x03, 0xe1, 0x02, 0x5d,
  0xe6, 0xb6, 0xed, 0xe8, 0x15, 0xc2, 0xb3, 0x21, 0xb1, 0xe7, 0xae, 0x0f,
  0xe2, 0x0c, 0xbb, 0xfa, 0xac, 0x04, 0xe7, 0xae, 0xee, 0x1d, 0x2d, 0x47,
  0xb3, 0x28, 0xed, 0xc3, 0xc0, 0x1c, 0xc4, 0xac, 0xf9, 0x16, 0xcd, 0x14,
  0x35, 0x1d, 0x2d, 0x04, 0xe2, 0x0a, 0xe5, 0xc6, 0xca, 0x14, 0xec, 0xcc,
  0xcb, 0x04, 0xab, 0xd2, 0xc6, 0xf9, 0xeb, 0xd6, 0xd6, 0x0e, 0xdb, 0xca,
  0xee, 0xd0, 0xf8, 0xae, 0x31, 0x00, 0xfa, 0xe3, 0xbb, 0xee, 0x20, 0xd8,
  0xfa, 0x19, 0xde, 0xd5, 0x1b, 0xed, 0xff, 0xb8, 0xc2, 0xf3, 0xd5, 0x07,
  0x0e, 0x9f, 0xd4, 0x02, 0xce, 0x99, 0xdc, 0xcb, 0xd1, 0xf2, 0xd0, 0xd2,
  0xc4, 0x04, 0xf3, 0xda, 0x3f, 0x16, 0xea, 0xcb, 0xfa, 0x2f, 0x00, 0xc0,
  0xf1, 0x36, 0xce, 0x13, 0x18, 0x49, 0x11, 0xf9, 0xca, 0xb7, 0xf1, 0x1f,
  0xc8, 0x2f, 0xe9, 0xc6, 0x3b, 0x12, 0x13, 0xef, 0x21, 0x59, 0x53, 0x27,
  0xf9, 0x94, 0x2a, 0x3d, 0xbb, 0x6d, 0x68, 0xb3, 0x58, 0x42, 0xaf, 0xbe,
  0x2e, 0xf4, 0x18, 0xd3, 0x35, 0x1b, 0x24, 0x2b, 0xd2, 0xe7, 0x25, 0xca,
  0xc0, 0xf1, 0xf0, 0xbe, 0xea, 0x74, 0x5a, 0xc3, 0xc6, 0xe5, 0x6e, 0xb8,
  0x54, 0xae, 0xf9, 0x17, 0x0d, 0x2b, 0xcc, 0xb6, 0x49, 0x0d, 0xc2, 0x99,
  0x17, 0x2a, 0xf7, 0x7f, 0x01, 0xfd, 0x3d, 0x30, 0xcb, 0x1e, 0x36, 0x09,
  0xf5, 0xb5, 0x2d, 0xee, 0x3c, 0x1e, 0x1c, 0x06, 0x19, 0x25, 0xbc, 0xe9,
  0xb8, 0xc1, 0xc1, 0xb5, 0x27, 0xed, 0xe7, 0xbb, 0xcf, 0xaf, 0x40, 0x03,
  0x0b, 0x38, 0xa6, 0xc1, 0xe8, 0xf7, 0x24, 0x2b, 0xa4, 0x87, 0xb9, 0xdf,
  0xb5, 0x4c, 0x13, 0x1a, 0x06, 0x3b, 0x9c, 0xb0, 0xbb, 0xd0, 0xaa, 0xc2,
  0xaa, 0x15, 0xc6, 0x48, 0xd0, 0xfa, 0x31, 0x00, 0xd4, 0x97, 0x41, 0x44,
  0xc8, 0xd6, 0xe6, 0xa4, 0xb9, 0x3d, 0xbb, 0xc0, 0x3d, 0xbf, 0xae, 0xfc,
  0x8e, 0xd9, 0x40, 0x3d, 0x3d, 0xea, 0xc4, 0xb4, 0x2f, 0x23, 0xbc, 0xbd,
  0xd5, 0x9f, 0xf8, 0xe4, 0xcf, 0x2a, 0xa0, 0xd9, 0x25, 0xd0, 0x98, 0x81,
  0xf5, 0x16, 0x15, 0xa0, 0xa2, 0xac, 0xce, 0xff, 0xa7, 0xc0, 0xc9, 0xc7,
  0x14, 0x4f, 0x28, 0xee, 0xe4, 0x41, 0x3d, 0x01, 0x02, 0x10, 0xa0, 0xf5,
  0xf3, 0xd6, 0xff, 0xaa, 0x43, 0xa4, 0x09, 0x47, 0xb4, 0x49, 0x4e, 0x37,
  0x9c, 0x1a, 0x25, 0xc2, 0x25, 0xd7, 0x1c, 0x9d, 0xb7, 0xf5, 0x9c, 0xc3,
  0xf2, 0xe5, 0x2f, 0xb6, 0xc1, 0xee, 0xcc, 0x3f, 0x06, 0xb8, 0x1e, 0xe0,
  0xdc, 0xf4, 0xb6, 0x1a, 0xb6, 0xba, 0xfb, 0x01, 0x15, 0xa9, 0xa2, 0x47,
  0x2a, 0xb1, 0xe1, 0x29, 0xbd, 0xfb, 0x20, 0x31, 0x22, 0xde, 0x0c, 0xd5,
  0x1a, 0xff, 0xc6, 0xf0, 0xd1, 0x04, 0x97, 0xfb, 0xb8, 0x4b, 0xda, 0x29,
  0x2b, 0x22, 0x3c, 0xe5, 0x1e, 0xe9, 0x1c, 0xfb, 0x2b, 0xa1, 0xf4, 0xc2,
  0x55, 0x3f, 0xa2, 0x28, 0xad, 0xd2, 0x5e, 0xcd, 0x32, 0xa1, 0x3a, 0xcc,
  0x15, 0x06, 0xeb, 0x4f, 0xd2, 0xde, 0xae, 0x4e, 0xd9, 0xb4, 0x32, 0x18,
  0x18, 0xad, 0xe6, 0xef, 0x0f, 0xdb, 0xe6, 0x00, 0x32, 0xe8, 0x97, 0x63,
  0x0d, 0xc7, 0x64, 0x2f, 0x49, 0x98, 0x51, 0x2f, 0x17, 0xa7, 0x41, 0x0d,
  0x49, 0xc1, 0xa5, 0x5e, 0xfb, 0x97, 0x73, 0x02, 0x0a, 0xa8, 0xbf, 0x37,
  0xdf, 0xcb, 0xc9, 0xdd, 0x5e, 0x01, 0xd0, 0xf9, 0xfc, 0xec, 0x31, 0x4c,
  0x30, 0x19, 0x2d, 0x61, 0x43, 0xb1, 0x2c, 0xc4, 0x7f, 0x03, 0xaa, 0x6b,
  0xc7, 0x09, 0xda, 0xc5, 0x37, 0x44, 0xbd, 0x1e, 0xc8, 0xf2, 0xbe, 0xf1,
  0x0d, 0x11, 0xec, 0xfc, 0x2d, 0x30, 0xcb, 0x27, 0xee, 0x3b, 0x93, 0xda,
  0x28, 0xbe, 0xf4, 0x22, 0x30, 0xa7, 0x1c, 0xfa, 0x4b, 0xd5, 0xac, 0x3c,
  0x0b, 0x49, 0x93, 0x1b, 0x36, 0xdb, 0x16, 0x71, 0xed, 0xa9, 0x29, 0x3b,
  0x2b, 0x1d, 0x23, 0xf0, 0xc5, 0x42, 0xc5, 0xac, 0x0f, 0x22, 0x3e, 0xda,
  0xde, 0xe9, 0x02, 0xf6, 0x37, 0xfc, 0xef, 0x2c, 0x27, 0x12, 0x07, 0xff,
  0xea, 0xe6, 0xf0, 0xfc, 0xd3, 0xfc, 0xd7, 0x26, 0xe3, 0xf5, 0xbe, 0x0f,
  0x07, 0xba, 0xd4, 0x0a, 0xf1, 0xaf, 0xc8, 0xc1, 0xae, 0xb8, 0xf1, 0x25,
  0xe6, 0x53, 0x0a, 0x23, 0x00, 0x16, 0x0d, 0xaa, 0x1d, 0x55, 0xdc, 0x3b,
  0xfe, 0x24, 0x0f, 0xfe, 0x24, 0x49, 0x06, 0xf5, 0xfa, 0x21, 0xec, 0xf6,
  0xe1, 0x7f, 0xe4, 0x2c, 0xff, 0x1c, 0x52, 0xb3, 0x20, 0x9b, 0x9c, 0x12,
  0xc9, 0x08, 0x1a, 0x4c, 0x10, 0x49, 0x17, 0xae, 0x18, 0x03, 0xdf, 0xdb,
  0xe8, 0x4e, 0xc7, 0xdd, 0xff, 0xef, 0xa6, 0xe3, 0xfc, 0x09, 0x27, 0x41,
  0x03, 0x1a, 0x36, 0x15, 0xe2, 0x03, 0x05, 0xd6, 0x12, 0x0d, 0x81, 0xf5,
  0xf6, 0x5a, 0x1d, 0xe3, 0xe4, 0x06, 0x45, 0xdc, 0xfa, 0x21, 0xce, 0xff,
  0xb5, 0xfb, 0xd8, 0xfa, 0xf9, 0x15, 0x09, 0xca, 0xff, 0xff, 0x03, 0xb9,
  0xce, 0xf5, 0x10, 0xed, 0x27, 0xc0, 0x11, 0xeb, 0xf0, 0x1e, 0xfc, 0x0a,
  0xed, 0x3e, 0x22, 0xd5, 0xc8, 0x16, 0x0a, 0xe9, 0xef, 0xd2, 0x5e, 0x9d,
  0xbc, 0xe4, 0x20, 0xfa, 0x4b, 0x43, 0xdd, 0x08, 0xd3, 0x06, 0xfe, 0xdf,
  0xe9, 0xdb, 0x08, 0xcc, 0xe0, 0x43, 0x51, 0xf5, 0x0b, 0x0b, 0xd0, 0xd6,
  0x13, 0x1b, 0xe4, 0xe2, 0xc5, 0x34, 0x21, 0x05, 0xf3, 0x1b, 0xf7, 0x11,
  0x0d, 0x32, 0x42, 0xd7, 0x4b, 0x48, 0x00, 0xa2, 0xe9, 0x51, 0x23, 0xf7,
  0x43, 0x30, 0xc6, 0xee, 0xcb, 0x36, 0x63, 0x9a, 0x11, 0x53, 0xce, 0xd1,
  0xd8, 0x71, 0x18, 0x39, 0xcd, 0x3c, 0x37, 0x24, 0x24, 0xcb, 0x01, 0xf7,
  0xb8, 0xe7, 0xa0, 0xa8, 0xd7, 0x16, 0xe0, 0xea, 0xb7, 0x2c, 0xb0, 0xb4,
  0xe9, 0xf1, 0x0f, 0xb0, 0x63, 0x39, 0x1b, 0x09, 0x01, 0x00, 0x21, 0xa6,
  0x13, 0x05, 0x59, 0x27, 0x21, 0x42, 0x33, 0xd8, 0x1a, 0x1c, 0xd2, 0x0f,
  0xda, 0x2b, 0x0f, 0xbc, 0x19, 0xd0, 0x43, 0x11, 0x15, 0x07, 0xef, 0x16,
  0x30, 0x1c, 0xe7, 0x2d, 0xe4, 0x0b, 0xf1, 0x1a, 0xea, 0x0d, 0x0c, 0x04,
  0xd9, 0x1e, 0xce, 0x0a, 0x17, 0xde, 0xea, 0x28, 0xee, 0xd7, 0x05, 0x0d,
  0xd5, 0x32, 0x36, 0xfb, 0xf4, 0xfe, 0xe2, 0xd0, 0xd3, 0x4e, 0xb9, 0xf9,
  0xe2, 0xda, 0xba, 0xd8, 0xee, 0xf1, 0xd5, 0xcc, 0x16, 0x20, 0xed, 0xcf,
  0x14, 0x40, 0xd6, 0xd8, 0xe1, 0x38, 0x1e, 0x10, 0x3d, 0xf6, 0x20, 0xeb,
  0x27, 0xe5, 0x44, 0x07, 0x1a, 0x38, 0xc3, 0xf5, 0xf7, 0x3f, 0x0d, 0x00,
  0xe6, 0x7f, 0x2a, 0xc8, 0xe1, 0xd0, 0x34, 0xb3, 0x33, 0x12, 0xb8, 0x10,
  0x14, 0xc3, 0x21, 0xb0, 0xef, 0x3f, 0x22, 0xc7, 0xea, 0xe6, 0xd4, 0xe5,
  0x4e, 0x92, 0x33, 0xe1, 0x77, 0xee, 0xe4, 0x2a, 0xd5, 0x16, 0x4e, 0x2d,
  0xe3, 0xb2, 0x36, 0xc8, 0x48, 0xf6, 0xe1, 0x26, 0x7a, 0xe5, 0xf8, 0x74,
  0xf9, 0xd6, 0x7f, 0xca, 0xd6, 0xcf, 0x3d, 0xb8, 0xc5, 0x0f, 0xd2, 0x5b,
  0x6e, 0xd2, 0xfd, 0x44, 0x15, 0x77, 0xef, 0x9f, 0x39, 0x0a, 0x48, 0x0c,
  0x6f, 0x45, 0xe8, 0x1f, 0xe2, 0x07, 0x9b, 0xbd, 0x09, 0x4b, 0x27, 0x03,
  0x16, 0x1c, 0x31, 0x08, 0x47, 0x12, 0xc8, 0x2a, 0x9c, 0x21, 0x91, 0xe1,
  0xda, 0x53, 0xe5, 0xe0, 0x0e, 0xd3, 0x59, 0xa2, 0x3e, 0x64, 0xfc, 0x35,
  0xb1, 0x3c, 0x96, 0x18, 0x0e, 0x75, 0xe2, 0xf0, 0xa6, 0x27, 0x53, 0xd8,
  0x48, 0x25, 0xec, 0xc0, 0xeb, 0x27, 0x26, 0xba, 0x9d, 0x06, 0xa1, 0xfa,
  0xd2, 0x1b, 0x20, 0x0f, 0xa9, 0x16, 0xee, 0xd0, 0x54, 0xf4, 0xea, 0x86,
  0xae, 0x11, 0xca, 0x32, 0xe8, 0xc4, 0x1a, 0xe6, 0xec, 0xae, 0x1a, 0xc9,
  0x51, 0x98, 0x0a, 0xe2, 0xfe, 0x09, 0x38, 0x53, 0x05, 0xc2, 0x26, 0xcd,
  0x09, 0xfe, 0xc0, 0xf1, 0x1e, 0x41, 0xc9, 0xf1, 0x19, 0x8f, 0x09, 0x20,
  0x25, 0x92, 0x64, 0x1f, 0x59, 0x4b, 0x05, 0x1a, 0xb0, 0x78, 0xc2, 0xed,
  0x46, 0xcd, 0x37, 0x3f, 0xb2, 0xb4, 0x50, 0x40, 0x4f, 0xe5, 0xa5, 0x11,
  0x1c, 0x64, 0xaf, 0xdd, 0xff, 0x81, 0x67, 0x28, 0xfd, 0xa7, 0x10, 0x1d,
  0x28, 0xfb, 0xd6, 0x41, 0xc7, 0xff, 0xc9, 0x05, 0xc2, 0xea, 0xe0, 0xe4,
  0x31, 0xc9, 0xd6, 0xa0, 0xc7, 0xca, 0xdf, 0x1e, 0xbd, 0xca, 0xab, 0xfc,
  0x25, 0x36, 0xba, 0xc5, 0xe7, 0x36, 0x49, 0xa5, 0xf6, 0x45, 0x0f, 0xd4,
  0xf0, 0x0f, 0x16, 0x2f, 0x26, 0x41, 0xe6, 0x44, 0xe6, 0x21, 0x5d, 0xab,
  0xa8, 0x09, 0xd4, 0xe4, 0xc6, 0xd2, 0x31, 0xe7, 0xa8, 0x97, 0x92, 0xfe,
  0xb9, 0xa8, 0xa7, 0x00, 0x23, 0xc8, 0xff, 0x59, 0x15, 0x07, 0x31, 0x05,
  0x31, 0x32, 0xe8, 0x06, 0xce, 0xa7, 0x13, 0x66, 0xec, 0xaa, 0x01, 0x2f,
  0x0c, 0x05, 0x75, 0xd6, 0x3c, 0xc1, 0xff, 0x0b, 0x4e, 0xa1, 0xe8, 0x29,
  0xba, 0xc8, 0x0a, 0x12, 0xca, 0xb0, 0x03, 0x19, 0x4a, 0xec, 0xd0, 0xf9,
  0xba, 0xbb, 0xbb, 0xf0, 0x22, 0xcb, 0xd9, 0xfd, 0x22, 0xbd, 0xcc, 0xff,
  0xe1, 0xd3, 0xdb, 0x1b, 0x2d, 0xeb, 0xd5, 0xdf, 0x04, 0xf9, 0xe3, 0x0a,
  0xef, 0xd7, 0xc4, 0x50, 0x13, 0x1a, 0x17, 0x0b, 0xc3, 0x0e, 0x0b, 0x12,
  0x11, 0xd3, 0x09, 0x25, 0x0b, 0xae, 0x65, 0xc1, 0xef, 0x53, 0x53, 0x10,
  0xe1, 0xd6, 0xa0, 0x01, 0xe2, 0x16, 0xce, 0x3b, 0x04, 0x8e, 0x11, 0xe0,
  0x07, 0x18, 0xf3, 0x0a, 0xbf, 0xca, 0xeb, 0xf4, 0x9c, 0xfe, 0xcd, 0xf1,
  0x15, 0xe1, 0x1a, 0xcb, 0xb7, 0xe8, 0xae, 0xf5, 0xf6, 0x81, 0xab, 0xc8,
  0x19, 0xf0, 0xcb, 0x06, 0xd2, 0x0d, 0x23, 0xf5, 0x27, 0x4c, 0x04, 0xc6,
  0x21, 0x3b, 0xfc, 0xd9, 0x26, 0xaa, 0xc6, 0x2b, 0x33, 0x13, 0xf7, 0x09,
  0xf3, 0xf4, 0x1a, 0x9d, 0xff, 0xf6, 0xbc, 0xb1, 0x03, 0x14, 0xe5, 0x1c,
  0xeb, 0xbf, 0xed, 0xb7, 0x11, 0xce, 0x32, 0xf5, 0x46, 0x0f, 0xb1, 0x07,
  0x3c, 0x3d, 0xf5, 0x2b, 0xac, 0xb1, 0x1c, 0xe7, 0xbc, 0xe2, 0x25, 0xa2,
  0x30, 0x2a, 0xfa, 0xf8, 0x1f, 0x49, 0x0d, 0xc7, 0x0a, 0xc5, 0x33, 0x91,
  0x02, 0x36, 0x6e, 0xaa, 0xda, 0x1e, 0xbf, 0x92, 0x1b, 0x5f, 0x37, 0x03,
  0x49, 0x23, 0x33, 0xdf, 0x61, 0xc8, 0x7f, 0x43, 0xf4, 0x02, 0xf9, 0xa5,
  0x49, 0x75, 0xc4, 0xc6, 0xfe, 0x32, 0xff, 0x30, 0x63, 0xd1, 0xbf, 0xea,
  0xff, 0xe8, 0x65, 0xf1, 0xfc, 0x4f, 0xa0, 0x0e, 0x97, 0x55, 0x2e, 0x70,
  0x0e, 0x57, 0xd3, 0xc0, 0x01, 0xe1, 0x54, 0xf8, 0x60, 0x4a, 0xce, 0xcf,
  0xf4, 0x6c, 0xe8, 0x18, 0xde, 0xe6, 0x0e, 0xbc, 0xd6, 0x5f, 0x03, 0xe9,
  0x42, 0xd9, 0x3e, 0x1a, 0xe8, 0xf2, 0x2b, 0x51, 0x1f, 0x3c, 0x56, 0x37,
  0xb5, 0x11, 0xae, 0x2f, 0xe8, 0x9d, 0xe0, 0x19, 0x34, 0xde, 0xf7, 0x31,
  0xf5, 0xc5, 0x0b, 0x08, 0xe9, 0xa3, 0xbd, 0x32, 0xd5, 0xc7, 0x2b, 0xf6,
  0xe7, 0xf6, 0xd4, 0x0b, 0xf6, 0xff, 0xd2, 0x25, 0xc8, 0x17, 0xd8, 0x04,
  0xf2, 0xcd, 0x5b, 0xb2, 0xbe, 0x04, 0x62, 0x9f, 0xd2, 0x32, 0xde, 0x20,
  0x04, 0x2c, 0xc8, 0x17, 0xde, 0xe9, 0x61, 0xdf, 0x20, 0xd5, 0x6a, 0xe3,
  0xb8, 0x78, 0xe7, 0xe7, 0x72, 0xed, 0x00, 0xfc, 0x40, 0x09, 0x38, 0x3f,
  0x19, 0xbf, 0x73, 0x7f, 0xe0, 0x69, 0x4f, 0x5b, 0x6f, 0x18, 0xff, 0x39,
  0xf5, 0x32, 0x6d, 0xc2, 0x22, 0x2f, 0xf9, 0x4b, 0x1e, 0x95, 0x04, 0xcd,
  0xe0, 0xbe, 0xdd, 0x0e, 0x1f, 0x12, 0x3f, 0x20, 0x28, 0xfe, 0xe7, 0x51,
  0x0b, 0xc4, 0x18, 0x03, 0xf9, 0xda, 0xc5, 0x11, 0xc3, 0x1c, 0x15, 0x39,
  0xea, 0x30, 0xd1, 0x58, 0x17, 0xa4, 0x46, 0xbd, 0xd2, 0x27, 0xa4, 0x71,
  0x9c, 0xca, 0xbe, 0xf2, 0xd3, 0xe6, 0xe3, 0x1f, 0x07, 0x09, 0x24, 0x1e,
  0x01, 0x28, 0x24, 0x35, 0x1f, 0xb6, 0x2a, 0xc3, 0x37, 0xe9, 0xc3, 0x09,
  0xf3, 0x2b, 0xad, 0x29, 0x1a, 0x2e, 0xcc, 0x23, 0x05, 0x1f, 0x16, 0x0c,
  0xbc, 0x0d, 0xc6, 0xdd, 0xf1, 0x1f, 0xb3, 0xbd, 0xe9, 0x17, 0xbd, 0xdf,
  0xdb, 0xac, 0xed, 0xda, 0xea, 0xd5, 0x08, 0xe1, 0xeb, 0x2e, 0x13, 0x19,
  0x19, 0x99, 0x21, 0x20, 0xcc, 0xa8, 0xe2, 0xee, 0xfc, 0x0b, 0xe6, 0xe7,
  0x13, 0xb4, 0xb0, 0x2b, 0x18, 0xfa, 0xd5, 0x0b, 0xe9, 0xe8, 0xf3, 0xfc,
  0x05, 0x03, 0x04, 0xf4, 0x3f, 0x2f, 0x17, 0x22, 0xe7, 0xe3, 0xdc, 0xe8,
  0xb3, 0x10, 0x25, 0x17, 0xf7, 0xd9, 0xf9, 0x1d, 0xea, 0x20, 0x10, 0x2d,
  0x3f, 0x46, 0x01, 0x05, 0xd1, 0x3d, 0x72, 0x44, 0xbc, 0xa4, 0x53, 0x40,
  0x31, 0x38, 0x2e, 0x46, 0x74, 0x2b, 0xf7, 0x43, 0xf4, 0x9c, 0x0f, 0xd6,
  0xd0, 0x8f, 0x0b, 0x42, 0x29, 0x3d, 0x2f, 0xff, 0xf0, 0xf2, 0xe9, 0x4d,
  0x08, 0xe2, 0xde, 0xee, 0xf4, 0xce, 0x23, 0x54, 0x3f, 0xd9, 0xb6, 0xe5,
  0xde, 0xd8, 0x9a, 0x2c, 0x15, 0xc1, 0xe0, 0x26, 0x25, 0x2d, 0xf8, 0x7f,
  0x07, 0xca, 0x1c, 0x45, 0xe3, 0xf6, 0xcb, 0x40, 0xef, 0x17, 0x2d, 0xfb,
  0x06, 0xec, 0xc0, 0x28, 0x43, 0x8e, 0xd8, 0x24, 0xea, 0xf0, 0xd7, 0x5e,
  0x07, 0xf4, 0xf1, 0x71, 0x28, 0x36, 0xf6, 0xd1, 0x19, 0x0c, 0x17, 0xc5,
  0x6c, 0xf5, 0xf4, 0xe0, 0xdd, 0xdb, 0xed, 0x44, 0x3e, 0xa8, 0x09, 0x18,
  0xd3, 0x2a, 0xf5, 0x1d, 0xf4, 0x1d, 0x2f, 0xe1, 0x14, 0x44, 0xad, 0x04,
  0xfd, 0xc8, 0xd8, 0xd3, 0xd3, 0x51, 0x08, 0xb1, 0xef, 0x7f, 0x17, 0x1e,
  0x42, 0x65, 0xbb, 0xf7, 0xa7, 0x32, 0x1b, 0x0a, 0xc3, 0xfc, 0x2c, 0x22,
  0x0b, 0xf9, 0x04, 0xad, 0xfe, 0xf4, 0x34, 0xf1, 0x39, 0x6f, 0x53, 0xdf,
  0x43, 0x06, 0x52, 0xda, 0xf6, 0xce, 0x52, 0xa9, 0x11, 0x06, 0xc5, 0x02,
  0x48, 0x66, 0x1c, 0x2d, 0xd6, 0xe9, 0xeb, 0x1b, 0x10, 0x22, 0x29, 0x23,
  0xda, 0xf8, 0x8c, 0xc4, 0xd6, 0x5f, 0xde, 0x26, 0x10, 0xcd, 0xe4, 0x26,
  0xc8, 0xf5, 0x3a, 0xd3, 0xd3, 0xed, 0x35, 0xe1, 0x33, 0x08, 0x2e, 0xc7,
  0x36, 0xef, 0xcb, 0xfe, 0xfc, 0x33, 0xec, 0xab, 0x68, 0x76, 0xd2, 0xeb,
  0xc1, 0x3d, 0x68, 0x7b, 0xc8, 0x03, 0xe6, 0x55, 0x05, 0x5a, 0x6b, 0xa6,
  0xf7, 0x21, 0x10, 0xf7, 0x29, 0x51, 0xc9, 0x0d, 0x56, 0xc9, 0xbc, 0x63,
  0xb6, 0xd5, 0x14, 0x70, 0x1b, 0x09, 0xea, 0xe9, 0x55, 0x7f, 0xae, 0x3e,
  0x72, 0xb7, 0x18, 0x12, 0xf3, 0xb1, 0x1d, 0x3b, 0x3a, 0x33, 0xf5, 0x30,
  0xd9, 0x76, 0xb6, 0x72, 0x6d, 0xbe, 0x24, 0xed, 0x19, 0x0b, 0x1f, 0x54,
  0xbe, 0x2e, 0x0e, 0x24, 0x15, 0xee, 0xb1, 0x09, 0x09, 0x0c, 0x01, 0x20,
  0x01, 0xb9, 0xb6, 0xf5, 0x20, 0x0a, 0xb0, 0xf8, 0x3e, 0x9f, 0x14, 0x3a,
  0x13, 0xdc, 0x51, 0xbd, 0xd8, 0xcd, 0x2d, 0xf1, 0xb3, 0x3b, 0x0f, 0x27,
  0x43, 0xb2, 0xd9, 0x5d, 0xe6, 0xbc, 0xe7, 0x22, 0x32, 0xd7, 0xaa, 0xed,
  0xf4, 0xd1, 0x12, 0xaf, 0xd8, 0x2e, 0xd3, 0xee, 0x2f, 0xf2, 0x05, 0xf6,
  0xb4, 0xbd, 0x18, 0xe8, 0x23, 0xed, 0x04, 0x04, 0x1b, 0xb4, 0xe4, 0x19,
  0xc0, 0x1b, 0xff, 0xe6, 0xcd, 0xcb, 0x1e, 0xca, 0xb3, 0x17, 0xa8, 0xd7,
  0xb6, 0xd4, 0x1c, 0xf1, 0xf6, 0xe5, 0xfe, 0xd1, 0xb0, 0x00, 0xcd, 0xec,
  0x22, 0xcc, 0x32, 0x01, 0x09, 0xd2, 0xe1, 0x16, 0xd7, 0xfe, 0xc3, 0x08,
  0x01, 0xe7, 0x13, 0x03, 0x3f, 0x0a, 0xf2, 0x29, 0xc3, 0xe5, 0xe8, 0xd8,
  0x11, 0xf3, 0x0a, 0x7f, 0xf1, 0xc6, 0xf5, 0x4e, 0x3e, 0xa8, 0x0c, 0x1f,
  0xef, 0x1c, 0x0c, 0xfd, 0x3f, 0xb2, 0xf6, 0x44, 0x08, 0xac, 0x42, 0x32,
  0x0b, 0xca, 0x1b, 0x24, 0x2d, 0x1b, 0xca, 0x05, 0xe3, 0xc1, 0x26, 0xe6,
  0xe0, 0xd4, 0xce, 0xe1, 0xd6, 0x20, 0x47, 0xfb, 0x13, 0x1d, 0xea, 0xed,
  0x2e, 0xec, 0x41, 0x31, 0x0f, 0x19, 0xf8, 0x49, 0x2d, 0x03, 0xe6, 0xdd,
  0x41, 0xb5, 0x9e, 0x2d, 0x24, 0x16, 0x27, 0x2d, 0x42, 0x38, 0xd3, 0x01,
  0xcd, 0xce, 0xde, 0xc0, 0xd5, 0xfd, 0xee, 0xfe, 0xcd, 0x28, 0xc9, 0x16,
  0xf5, 0x0e, 0xc6, 0xf3, 0xe4, 0xd5, 0xb9, 0xf0, 0x19, 0xed, 0x42, 0xe9,
  0xe5, 0x4f, 0xf5, 0xf8, 0xca, 0xee, 0xf7, 0x67, 0x98, 0xa5, 0x3a, 0x15,
  0x3b, 0x02, 0x1b, 0xe8, 0x06, 0xe7, 0xdc, 0xf2, 0xb6, 0xf9, 0x10, 0x45,
  0x33, 0xe2, 0x1d, 0xc9, 0x34, 0xe6, 0xfb, 0x5e, 0xc4, 0x08, 0x0c, 0xce,
  0xe5, 0x44, 0xaa, 0x28, 0xf0, 0xe0, 0x2d, 0xff, 0x13, 0x30, 0xef, 0x01,
  0xda, 0xeb, 0x35, 0xd2, 0x12, 0xea, 0xf8, 0x37, 0x2d, 0xcd, 0x0b, 0xe7,
  0x22, 0x0b, 0xef, 0x24, 0xb4, 0x05, 0x01, 0x34, 0x10, 0xfe, 0x22, 0xe6,
  0xe6, 0xb0, 0xf4, 0x24, 0xf2, 0x37, 0xb9, 0xc4, 0x0c, 0x13, 0xc8, 0x60,
  0xf2, 0xb2, 0x42, 0x6c, 0x0f, 0x1a, 0xfd, 0x35, 0x50, 0xce, 0x48, 0x14,
  0x34, 0xb2, 0x21, 0x3e, 0x45, 0xc7, 0x2d, 0x59, 0xdc, 0x98, 0xfd, 0xfa,
  0xf1, 0xe9, 0xfa, 0xfd, 0xf5, 0x81, 0x36, 0x52, 0xd9, 0xf3, 0xd3, 0x4a,
  0xf9, 0xcb, 0xdc, 0x00, 0xe9, 0xf0, 0xbb, 0xee, 0xd7, 0xd5, 0x1f, 0x49,
  0x10, 0x35, 0xe3, 0xe8, 0xe4, 0xef, 0xe1, 0x1f, 0x31, 0xc1, 0x99, 0x1d,
  0xe7, 0xe8, 0xdd, 0x0d, 0x41, 0x1b, 0xdf, 0x0a, 0x3f, 0x26, 0x3e, 0x30,
  0x16, 0xed, 0xf5, 0x40, 0xeb, 0xf7, 0x51, 0xf8, 0x07, 0x38, 0xfd, 0xf7,
  0x13, 0x01, 0x2f, 0xe1, 0x1d, 0x1c, 0xe8, 0xcd, 0xef, 0xdc, 0xe7, 0xbe,
  0xdd, 0x45, 0xae, 0x0e, 0xe4, 0xe8, 0x03, 0xff, 0xe4, 0xd6, 0x1a, 0xd6,
  0x2b, 0xec, 0x1f, 0xd1, 0xf5, 0x32, 0xc6, 0xdb, 0xc5, 0x0b, 0x07, 0xfc,
  0x03, 0xfd, 0xf9, 0xb8, 0xc6, 0x14, 0x1c, 0xe2, 0x0d, 0xf3, 0x15, 0xc5,
  0xd6, 0x7f, 0xf1, 0xd6, 0xde, 0x09, 0xde, 0x16, 0xbb, 0xb7, 0xe4, 0x9c,
  0xfe, 0x2f, 0xf9, 0xe2, 0xeb, 0xf5, 0xd5, 0xfd, 0x26, 0x03, 0xd9, 0xcf,
  0x0d, 0x0f, 0x22, 0xcb, 0x41, 0x41, 0xfe, 0xe0, 0xc9, 0xdb, 0x06, 0x2c,
  0x24, 0x25, 0xde, 0x0d, 0xca, 0x2d, 0x04, 0xc8, 0xcc, 0x2a, 0xe3, 0xb9,
  0xf3, 0x50, 0x2d, 0x08, 0x07, 0xca, 0x1d, 0xb2, 0x45, 0xc5, 0xd2, 0xfb,
  0x03, 0x1a, 0x3b, 0xa3, 0x4b, 0x26, 0x04, 0xa5, 0x12, 0x57, 0x4f, 0x05,
  0xd2, 0x46, 0x11, 0xbd, 0x03, 0x39, 0x5c, 0x0d, 0x41, 0xd5, 0xff, 0xb5,
  0x1d, 0xe9, 0x19, 0xb9, 0xbf, 0x2a, 0x1c, 0xd7, 0x11, 0x14, 0xfb, 0xf7,
  0x22, 0xb5, 0xf6, 0xa5, 0x37, 0x2e, 0xd4, 0x00, 0xc5, 0x2b, 0xae, 0x16,
  0xe0, 0x16, 0xc8, 0x11, 0xa3, 0xea, 0xd1, 0x08, 0x27, 0xa7, 0xfe, 0x19,
  0x93, 0xdc, 0xa4, 0x06, 0xec, 0x15, 0xaf, 0x1a, 0x95, 0xd0, 0xcf, 0x18,
  0x03, 0x19, 0x06, 0xd2, 0x0b, 0xcb, 0x34, 0x1b, 0xb6, 0x26, 0xd8, 0x07,
  0x05, 0xb8, 0xff, 0x38, 0xaf, 0x08, 0x6e, 0xf4, 0x14, 0x50, 0x12, 0xf0,
  0x3c, 0x5d, 0xc7, 0xd8, 0x21, 0xcc, 0xe6, 0xb8, 0x2d, 0xf4, 0x57, 0x25,
  0xde, 0xeb, 0xf1, 0xa5, 0xf7, 0x05, 0xf3, 0x5a, 0xac, 0xfe, 0xd1, 0xcd,
  0xcf, 0xd4, 0x74, 0x3f, 0x02, 0x20, 0xf8, 0xe2, 0x3c, 0xec, 0xd4, 0x28,
  0x44, 0xc1, 0x7f, 0x2c, 0x47, 0x91, 0x01, 0xf5, 0x45, 0xee, 0x18, 0xc5,
  0x16, 0xb8, 0xa5, 0x26, 0x23, 0xcb, 0x67, 0x38, 0xbf, 0xaa, 0x27, 0xb2,
  0x39, 0xfc, 0xc4, 0xe6, 0x66, 0x95, 0xce, 0x3d, 0x3d, 0xc6, 0x50, 0x2d,
  0x45, 0xc4, 0x1a, 0x2e, 0x43, 0xbf, 0xc6, 0xd7, 0x50, 0x37, 0x9c, 0xff,
  0xe0, 0x0b, 0xce, 0xc3, 0x2e, 0xae, 0x2b, 0xd7, 0x15, 0x12, 0xb2, 0x1f,
  0xc0, 0xc5, 0xf9, 0xd9, 0xc6, 0xd6, 0xbc, 0xcc, 0xbc, 0x15, 0xc4, 0x1c,
  0x16, 0xb0, 0xe8, 0xac, 0xfb, 0x08, 0xe2, 0xb3, 0x00, 0x22, 0xde, 0x1e,
  0xdd, 0xc1, 0xd1, 0xfa, 0x20, 0xe7, 0x1e, 0xd7, 0xa6, 0xe0, 0xa0, 0xec,
  0x46, 0xf5, 0x35, 0x4d, 0x20, 0x54, 0x99, 0xff, 0x55, 0xe1, 0x21, 0x7f,
  0x0e, 0xc6, 0x1b, 0x5c, 0x41, 0xf2, 0xc6, 0x53, 0xf5, 0x3b, 0xeb, 0x56,
  0x51, 0xf5, 0xe5, 0x53, 0x17, 0x9c, 0xff, 0x05, 0xeb, 0x31, 0xce, 0x00,
  0xd6, 0x21, 0xbb, 0xf8, 0x04, 0xc9, 0xe9, 0xdf, 0x12, 0xde, 0xf7, 0x31,
  0x09, 0x44, 0xb7, 0xf3, 0xef, 0x00, 0xde, 0x05, 0xdd, 0x2f, 0x44, 0xe2,
  0xd8, 0x42, 0x58, 0x0c, 0x0d, 0xc3, 0xd7, 0xfb, 0x32, 0x22, 0x0e, 0xd3,
  0xff, 0x5c, 0x20, 0xed, 0xdb, 0xf4, 0xf2, 0x30, 0xdb, 0x20, 0xc9, 0x3d,
  0xd5, 0xd3, 0xae, 0x2a, 0xbe, 0x2e, 0x27, 0xb6, 0x2d, 0xc8, 0xe6, 0xd8,
  0x3a, 0xc4, 0x97, 0x95, 0xae, 0x3c, 0x1e, 0xd4, 0x26, 0x2b, 0xad, 0xe8,
  0x18, 0x1e, 0x37, 0x8b, 0xe0, 0x2e, 0x26, 0xa2, 0x29, 0x37, 0xea, 0xb0,
  0x29, 0x47, 0xe0, 0xa0, 0xaa, 0xf5, 0xe1, 0xd0, 0xb5, 0x28, 0x38, 0xcf,
  0x27, 0x2d, 0x19, 0x1c, 0xca, 0x08, 0x96, 0x15, 0x30, 0xcd, 0xbb, 0xd8,
  0xcc, 0xeb, 0x14, 0x46, 0x1f, 0x81, 0x5d, 0xb2, 0x29, 0x35, 0xf4, 0xec,
  0x45, 0x49, 0xe3, 0x1d, 0x01, 0xd7, 0x25, 0x19, 0x1b, 0x2f, 0x0d, 0xd3,
  0xf0, 0xe8, 0x2c, 0x37, 0xea, 0xf6, 0xb2, 0xf9, 0x9a, 0xb7, 0xe3, 0x30,
  0xd2, 0xde, 0x36, 0xcf, 0x34, 0x1f, 0x87, 0xcb, 0xb6, 0xb3, 0x9e, 0xd4,
  0x15, 0x9f, 0xfb, 0xe2, 0x6b, 0x05, 0x1f, 0xc9, 0x3a, 0xb6, 0x55, 0xb2,
  0xfa, 0xe8, 0x08, 0xe8, 0x33, 0x99, 0xf8, 0x1c, 0x44, 0xc2, 0xeb, 0x0b,
  0x62, 0x84, 0x14, 0x4c, 0x10, 0x93, 0x41, 0x4b, 0xc4, 0x02, 0x62, 0xcb,
  0x22, 0x05, 0xbf, 0xec, 0xf7, 0x21, 0xf4, 0xfa, 0x15, 0xd2, 0x88, 0x57,
  0x05, 0x52, 0xfa, 0x27, 0xcb, 0xe2, 0x07, 0xf2, 0x31, 0xf3, 0xa0, 0xd2,
  0xf4, 0xd2, 0x08, 0xdf, 0x0e, 0x60, 0x40, 0xdb, 0x23, 0x4c, 0xd0, 0x1f,
  0x18, 0x22, 0xda, 0x17, 0x16, 0x1d, 0x3d, 0x50, 0x57, 0xba, 0xf7, 0x3d,
  0xc9, 0x6d, 0x81, 0xd6, 0x12, 0xea, 0x1b, 0x4c, 0xdb, 0xc1, 0x4f, 0x6b,
  0xfd, 0x90, 0xe9, 0xf7, 0xf4, 0xa8, 0x69, 0xd2, 0x39, 0xcc, 0xff, 0xbc,
  0x37, 0xcd, 0x19, 0x25, 0xef, 0x04, 0xef, 0x0d, 0x39, 0xe8, 0x2d, 0xf8,
  0xf2, 0xd6, 0xcf, 0xd0, 0x00, 0xb8, 0xc4, 0xd6, 0xc2, 0xcf, 0xe4, 0xf7,
  0xff, 0xe7, 0xf9, 0x65, 0xde, 0x00, 0xd1, 0xc1, 0xe6, 0x16, 0xce, 0x14,
  0xf2, 0x07, 0xff, 0xca, 0x14, 0xd9, 0xb8, 0x24, 0xcd, 0xd7, 0x07, 0x0e,
  0xed, 0xf2, 0xf0, 0xd2, 0xb9, 0xfa, 0x23, 0xeb, 0xe0, 0x17, 0xaf, 0x1f,
  0x09, 0xef, 0x0e, 0xf5, 0x08, 0x1b, 0x05, 0x05, 0x0d, 0x0c, 0xfa, 0x19,
  0x10, 0xdd, 0xf4, 0x19, 0xdb, 0x30, 0xcc, 0xcc, 0x1c, 0xbb, 0x22, 0x08,
  0x42, 0x4a, 0x20, 0xfd, 0xcb, 0x62, 0xa5, 0x1f, 0x52, 0xea, 0xd8, 0x27,
  0xcd, 0xa1, 0x12, 0x22, 0xd3, 0xec, 0xf8, 0x19, 0x10, 0x08, 0xfc, 0x08,
  0x40, 0xd1, 0xe0, 0x51, 0xb7, 0x95, 0x52, 0x28, 0xd8, 0xef, 0x1f, 0x2a,
  0x4d, 0x1c, 0xf3, 0xda, 0x29, 0xbf, 0x45, 0xe4, 0xd9, 0xc3, 0xe6, 0x4d,
  0xd1, 0xfb, 0x32, 0xd2, 0xf4, 0xdd, 0xda, 0xc8, 0x10, 0x13, 0xde, 0x07,
  0xcf, 0xe1, 0xd1, 0xda, 0xde, 0x25, 0xb9, 0xe8, 0x09, 0xf6, 0xb9, 0x0e,
  0x27, 0xb1, 0xfd, 0xc2, 0xd8, 0xdb, 0xcf, 0x01, 0xf0, 0x34, 0xe8, 0x26,
  0xf4, 0x35, 0xf0, 0x3c, 0x27, 0xf7, 0x0f, 0x1f, 0x2a, 0x2a, 0x19, 0x08,
  0x21, 0x37, 0x36, 0xd4, 0xff, 0x4d, 0xea, 0x09, 0xe0, 0x7f, 0x33, 0xc5,
  0x17, 0x3f, 0x48, 0xf2, 0x05, 0x19, 0x30, 0x13, 0x24, 0x16, 0x48, 0xd2,
  0xd4, 0x23, 0x24, 0xd1, 0xc2, 0xe2, 0x2d, 0x00, 0x02, 0xf6, 0xc3, 0x3c,
  0xde, 0x13, 0x30, 0x1d, 0xe1, 0xf1, 0x20, 0x13, 0xcc, 0x0f, 0x39, 0x22,
  0x62, 0xc4, 0xff, 0xff, 0x04, 0x00, 0x00, 0x00, 0x80, 0x00, 0x00, 0x00,
  0xba, 0xfb, 0xff, 0xff, 0x08, 0xfd, 0xff, 0xff, 0x31, 0xfe, 0xff, 0xff,
  0x76, 0xfa, 0xff, 0xff, 0x97, 0x03, 0x00, 0x00, 0xc7, 0x01, 0x00, 0x00,
  0x3c, 0x04, 0x00, 0x00, 0x3d, 0xff, 0xff, 0xff, 0x1e, 0xfd, 0xff, 0xff,
  0x79, 0x04, 0x00, 0x00, 0x07, 0xf9, 0xff, 0xff, 0x2b, 0xff, 0xff, 0xff,
  0xf5, 0x01, 0x00, 0x00, 0x19, 0xfd, 0xff, 0xff, 0x51, 0x01, 0x00, 0x00,
  0xfd, 0xff, 0xff, 0xff, 0xfe, 0x02, 0x00, 0x00, 0x59, 0xff, 0xff, 0xff,
  0xbb, 0x04, 0x00, 0x00, 0xe4, 0xff, 0xff, 0xff, 0xff, 0x04, 0x00, 0x00,
  0xaa, 0x01, 0x00, 0x00, 0x8d, 0xfa, 0xff, 0xff, 0x92, 0x06, 0x00, 0x00,
  0xd5, 0xfc, 0xff, 0xff, 0x27, 0xfe, 0xff, 0xff, 0xd4, 0xfd, 0xff, 0xff,
  0xe2, 0x04, 0x00, 0x00, 0xa7, 0x02, 0x00, 0x00, 0x4d, 0x02, 0x00, 0x00,
  0x63, 0xf9, 0xff, 0xff, 0x07, 0xfc, 0xff, 0xff, 0xee, 0xc4, 0xff, 0xff,
  0x04, 0x00, 0x00, 0x00, 0x00, 0x38, 0x00, 0x00, 0xbc, 0xfc, 0xee, 0x0a,
  0xc2, 0xdc, 0x49, 0x99, 0x35, 0x25, 0xf2, 0xd0, 0xe4, 0xb7, 0xea, 0x41,
  0xb3, 0x8a, 0x2f, 0x1c, 0x1e, 0x39, 0xa1, 0xa8, 0x27, 0xcb, 0x1f, 0xc1,
  0xb1, 0xca, 0x43, 0x3a, 0x8c, 0xc7, 0xda, 0x8a, 0x9b, 0xf0, 0xca, 0x2d,
  0xeb, 0xa0, 0xf0, 0xe4, 0x20, 0xc7, 0x09, 0xc6, 0xde, 0xba, 0x0a, 0x91,
  0x44, 0x15, 0x8a, 0x18, 0xee, 0xfc, 0x42, 0x19, 0xd5, 0x2e, 0xf4, 0x14,
  0x97, 0x42, 0x22, 0x10, 0x2a, 0xa0, 0x49, 0xd2, 0x35, 0x3d, 0x01, 0x29,
  0xcc, 0xb8, 0x33, 0x9f, 0x49, 0x19, 0xce, 0x3b, 0xd8, 0x01, 0xaa, 0x95,
  0x48, 0xbf, 0x42, 0xb6, 0x14, 0x52, 0xbe, 0xf2, 0xea, 0xf6, 0x4c, 0xc3,
  0xad, 0x14, 0xe7, 0x9c, 0x51, 0xde, 0x9a, 0x13, 0xbf, 0xbc, 0x00, 0xb6,
  0xba, 0xbd, 0x86, 0xc9, 0xb4, 0x0e, 0x31, 0xee, 0xa5, 0xc3, 0x41, 0x11,
  0x89, 0xc9, 0xf7, 0xfb, 0xdf, 0x3b, 0xa8, 0xb2, 0xb4, 0xf3, 0xb5, 0xcf,
  0xc2, 0xdc, 0x22, 0x11, 0xa2, 0x07, 0x05, 0x08, 0xe9, 0xb3, 0x9a, 0xae,
  0x86, 0x22, 0xb3, 0x9d, 0x2d, 0x33, 0xe1, 0xdc, 0x41, 0xf6, 0x99, 0x09,
  0x34, 0x1c, 0x41, 0xb5, 0x0c, 0x09, 0xbd, 0x9f, 0xe6, 0xa3, 0xd5, 0xdd,
  0x4e, 0xc9, 0xb9, 0xf4, 0x04, 0x30, 0x03, 0xa7, 0x20, 0xc8, 0xbf, 0xd1,
  0x15, 0x36, 0x3f, 0x89, 0x03, 0x23, 0xa7, 0xf0, 0xee, 0xe7, 0xda, 0xa8,
  0xd9, 0xf3, 0x24, 0x20, 0xa4, 0x81, 0xa0, 0x46, 0x2e, 0x2a, 0xe3, 0x53,
  0xb1, 0xd8, 0x19, 0xd9, 0x25, 0x26, 0xba, 0xed, 0x28, 0xe0, 0xc9, 0xae,
  0xf8, 0x16, 0xc6, 0xd0, 0x4b, 0xa8, 0x16, 0xc1, 0xfe, 0xd4, 0xfb, 0x02,
  0xa3, 0x36, 0xa0, 0x9a, 0x91, 0x66, 0x63, 0xa7, 0x16, 0xa5, 0x4d, 0x9b,
  0xce, 0xcb, 0x5d, 0xd4, 0x5a, 0x9b, 0x78, 0xf7, 0x1d, 0xb6, 0x40, 0x92,
  0x65, 0x75, 0x1d, 0xe9, 0x2b, 0x9a, 0xbf, 0xe7, 0xd0, 0xcb, 0xb0, 0x97,
  0x1d, 0x48, 0x15, 0x0f, 0xc5, 0x4a, 0xea, 0xc6, 0x0a, 0x53, 0xdf, 0x52,
  0x1a, 0xe9, 0x94, 0x8d, 0x09, 0xf1, 0xed, 0xc8, 0x54, 0x56, 0x26, 0x8a,
  0x56, 0xd6, 0xe0, 0x3a, 0x5c, 0xe5, 0x90, 0xd8, 0x6e, 0x57, 0x6c, 0x6c,
  0x93, 0x3d, 0xe8, 0xa6, 0x1d, 0xe1, 0x07, 0x27, 0xb7, 0x8e, 0x37, 0x2e,
  0x39, 0x44, 0x4f, 0x07, 0xbc, 0x31, 0x0b, 0xaa, 0xf1, 0x9c, 0x38, 0xee,
  0x3d, 0x5b, 0xe8, 0x6f, 0xdf, 0xc4, 0xa5, 0xac, 0x1a, 0x97, 0xc4, 0xd0,
  0x23, 0x8b, 0x18, 0x5a, 0x1d, 0x53, 0x3f, 0x42, 0x09, 0xe2, 0xc5, 0x18,
  0x6e, 0x4f, 0x19, 0xb4, 0x84, 0xa6, 0xcb, 0x58, 0xca, 0x3b, 0xd1, 0xca,
  0xc2, 0x35, 0xbd, 0x54, 0xb2, 0x85, 0xf3, 0xd4, 0x82, 0x8b, 0x83, 0xb7,
  0x32, 0xd6, 0xc3, 0x90, 0xb2, 0x1b, 0xbf, 0x3d, 0xc0, 0x1c, 0x04, 0x8a,
  0x47, 0x0f, 0xd1, 0x0e, 0xb3, 0x44, 0x42, 0xd8, 0x3b, 0x01, 0x02, 0xe3,
  0x36, 0x08, 0x35, 0xdf, 0x9f, 0x84, 0x27, 0xc8, 0x4b, 0x1a, 0x39, 0xad,
  0xb9, 0x0e, 0x05, 0xd6, 0xd6, 0x0d, 0x5a, 0x38, 0x8f, 0x25, 0x8d, 0xfd,
  0x8c, 0x11, 0x30, 0xa1, 0xea, 0x81, 0x2a, 0x9d, 0xfb, 0x26, 0x91, 0x97,
  0x30, 0xa0, 0xb8, 0x15, 0xf6, 0x52, 0x60, 0x63, 0x34, 0x60, 0x65, 0x68,
  0xfc, 0xd7, 0x12, 0x08, 0x19, 0xd6, 0xd6, 0xc9, 0x2a, 0xd8, 0xc9, 0x30,
  0x25, 0x14, 0x08, 0x54, 0x1c, 0x5e, 0x24, 0x3c, 0x07, 0x5d, 0xd7, 0xe2,
  0xf9, 0xf4, 0x11, 0xd6, 0xfb, 0xb2, 0xa5, 0xdd, 0xda, 0x9f, 0xe6, 0xee,
  0x1c, 0xcd, 0xf1, 0xbf, 0xbc, 0xfa, 0xfb, 0xf4, 0x2e, 0x0e, 0x15, 0xfd,
  0xff, 0x5f, 0x50, 0x20, 0x0c, 0x06, 0x5c, 0x35, 0x15, 0xfd, 0x3e, 0xe7,
  0x4c, 0x1a, 0x19, 0xda, 0xb8, 0xea, 0xcc, 0x1d, 0xf7, 0x12, 0xe0, 0xbc,
  0x0e, 0x0e, 0xee, 0xd7, 0x30, 0x2b, 0xc5, 0x3e, 0xd8, 0xa7, 0xfd, 0x1d,
  0xef, 0xb6, 0xe2, 0x24, 0x10, 0x39, 0x29, 0x61, 0x33, 0x60, 0x39, 0x36,
  0x28, 0xcb, 0xf2, 0xcf, 0x16, 0xe8, 0xbf, 0x19, 0xe8, 0xf8, 0x17, 0x39,
  0xe2, 0xfd, 0x1b, 0x24, 0x32, 0x12, 0xe5, 0xdd, 0x04, 0x34, 0x1c, 0x3a,
  0x47, 0x38, 0xf7, 0x4c, 0x5c, 0x1f, 0xe4, 0xa4, 0xfa, 0x24, 0x10, 0x2d,
  0x0c, 0x2b, 0x02, 0xcd, 0xf6, 0xe8, 0x1b, 0x36, 0xbc, 0xf5, 0x0f, 0xc2,
  0xe8, 0xec, 0xfc, 0xf9, 0xcb, 0xd1, 0xb9, 0xad, 0x9b, 0xd5, 0xf2, 0x35,
  0x32, 0xe5, 0x08, 0x29, 0x4b, 0x04, 0x61, 0x11, 0x66, 0xfb, 0x36, 0x3b,
  0x47, 0x25, 0x0f, 0x1c, 0x0f, 0x29, 0xe5, 0xf6, 0x4c, 0xf4, 0x2f, 0xea,
  0x2b, 0xcc, 0xe6, 0x27, 0x0e, 0x29, 0x4f, 0x6b, 0x68, 0x96, 0x18, 0x23,
  0xe5, 0x22, 0x20, 0x06, 0x10, 0x6c, 0x43, 0x2e, 0xff, 0x48, 0x22, 0x9b,
  0xfd, 0xd3, 0xf0, 0xe2, 0x17, 0xf8, 0x02, 0xf5, 0x6f, 0x09, 0x64, 0x41,
  0x03, 0x33, 0x42, 0x6b, 0x7f, 0x43, 0x34, 0x30, 0xb1, 0xb6, 0xe3, 0xf8,
  0x87, 0x81, 0xfb, 0xdb, 0xfe, 0x2f, 0x00, 0x0f, 0xcf, 0x2f, 0xa0, 0xc2,
  0x00, 0xb7, 0xa8, 0x08, 0xb9, 0xbd, 0xf2, 0x1a, 0x37, 0xd0, 0x16, 0x2f,
  0xe3, 0x00, 0x2e, 0xb2, 0xe6, 0x16, 0xf8, 0x0f, 0xb3, 0x25, 0xbf, 0x02,
  0x02, 0xc9, 0xc0, 0xca, 0xd7, 0x47, 0xfc, 0x00, 0x44, 0x1a, 0xbb, 0xc2,
  0x93, 0xe8, 0xad, 0x96, 0xb9, 0x2e, 0xb9, 0x90, 0x2b, 0x02, 0x97, 0xbc,
  0xa2, 0x00, 0x30, 0xf2, 0x0c, 0xb6, 0xe3, 0xbf, 0xd1, 0xa1, 0xcd, 0x58,
  0xf8, 0x47, 0xa2, 0xc0, 0x20, 0xc1, 0x5d, 0xcf, 0xbe, 0xd1, 0x29, 0x96,
  0xa9, 0x94, 0x8b, 0xb5, 0xc7, 0x24, 0x0f, 0x19, 0xba, 0xad, 0x23, 0x96,
  0x1c, 0xd7, 0xda, 0x0b, 0x43, 0x39, 0x01, 0x1a, 0xa4, 0x17, 0xa4, 0xcd,
  0x2a, 0xeb, 0x06, 0xdb, 0xd6, 0x97, 0xe9, 0x04, 0xdc, 0xef, 0x35, 0xcf,
  0x99, 0x06, 0xec, 0x9e, 0xe2, 0x09, 0xee, 0x13, 0xe8, 0x9e, 0x20, 0x20,
  0xc7, 0x1a, 0xbe, 0xf5, 0xdc, 0xe5, 0xa3, 0xcd, 0x12, 0xae, 0xed, 0xe4,
  0x10, 0xc2, 0x32, 0x22, 0x1a, 0xe4, 0xcb, 0x0c, 0xe9, 0x09, 0xe6, 0xc2,
  0xc8, 0x82, 0x88, 0x99, 0x1c, 0x9b, 0xb0, 0x29, 0x96, 0x21, 0x01, 0x9a,
  0xa3, 0xc4, 0xf2, 0xa0, 0xaf, 0x0e, 0xa2, 0xab, 0xd5, 0xaa, 0x9b, 0xe6,
  0x40, 0xc6, 0xf6, 0x1b, 0x54, 0x22, 0xe8, 0x8b, 0x33, 0x96, 0x30, 0x3d,
  0xd3, 0x93, 0xb8, 0xd6, 0xda, 0xab, 0x2d, 0xcd, 0x36, 0x9c, 0x3a, 0x81,
  0xde, 0xfa, 0x9f, 0xdc, 0x08, 0xb9, 0x1d, 0xc6, 0x4e, 0x05, 0x06, 0x43,
  0x8f, 0xb6, 0xce, 0xff, 0xdd, 0x3c, 0xa5, 0x2d, 0x85, 0x52, 0xc8, 0xb6,
  0xf6, 0xe7, 0x4b, 0xba, 0xd5, 0xac, 0x4e, 0xa2, 0x2f, 0x94, 0xbe, 0x66,
  0xca, 0x08, 0x2c, 0x16, 0xe8, 0x59, 0xfa, 0x9e, 0x06, 0xa4, 0xcc, 0x22,
  0xdd, 0xd9, 0xce, 0x5d, 0xf7, 0xe1, 0xd6, 0x26, 0x9e, 0xa7, 0xc1, 0xe8,
  0xe9, 0xb9, 0x8b, 0x3b, 0x5c, 0x3e, 0x9a, 0xfb, 0x9b, 0x15, 0x54, 0x0f,
  0x40, 0xf4, 0xe8, 0x55, 0x1f, 0xd9, 0x9c, 0x40, 0x05, 0x30, 0xdd, 0xf1,
  0xbe, 0xb1, 0xdd, 0x0a, 0x13, 0xce, 0xaa, 0x39, 0x68, 0x0e, 0xe7, 0xa4,
  0xd2, 0x2d, 0x56, 0xe6, 0xf2, 0x67, 0x0c, 0x47, 0xf5, 0xe3, 0xb4, 0xb5,
  0x1d, 0xa9, 0x81, 0xe5, 0xe4, 0xa8, 0x36, 0x6a, 0x98, 0x07, 0x43, 0x2d,
  0x66, 0x32, 0x78, 0x7a, 0x1b, 0xa0, 0xfe, 0x9a, 0x45, 0x83, 0x47, 0x01,
  0xe0, 0x00, 0xf4, 0x55, 0x18, 0x88, 0x41, 0x46, 0xa7, 0xa0, 0xdf, 0x4f,
  0x69, 0x96, 0x88, 0xc3, 0xe0, 0x99, 0xd8, 0x5f, 0xdc, 0x34, 0x38, 0x6c,
  0xda, 0xec, 0x38, 0x5f, 0xe0, 0xaa, 0xe4, 0x69, 0xca, 0x0e, 0x87, 0x6b,
  0xa0, 0xd2, 0x91, 0x5e, 0xf9, 0x8d, 0x11, 0xe2, 0xc7, 0x55, 0x41, 0xa4,
  0xcf, 0xa8, 0xce, 0x4c, 0xdf, 0x85, 0x85, 0x86, 0x8f, 0xbd, 0x4b, 0xd2,
  0x00, 0x53, 0xcf, 0x64, 0x7b, 0x48, 0xa3, 0xaa, 0xc2, 0x13, 0xa5, 0xcd,
  0x30, 0xdd, 0xe3, 0xf1, 0x5b, 0x83, 0x57, 0xd6, 0xc6, 0xa6, 0x27, 0x6b,
  0xc8, 0xd2, 0xb1, 0x75, 0xa0, 0x50, 0x03, 0xdd, 0x7f, 0xd3, 0x4b, 0x9c,
  0x57, 0x60, 0x1f, 0xc1, 0x6c, 0xef, 0xa6, 0xca, 0xf5, 0x70, 0x94, 0x71,
  0x51, 0x38, 0xfa, 0x22, 0x00, 0xef, 0x57, 0x0e, 0xea, 0xfb, 0x4f, 0x03,
  0xf7, 0xf5, 0xe8, 0xb1, 0xb7, 0x15, 0x1b, 0xe2, 0xfe, 0x04, 0x4a, 0x10,
  0x54, 0x32, 0xff, 0x00, 0x52, 0x07, 0x46, 0x0e, 0x59, 0x15, 0x26, 0xf6,
  0xef, 0xe6, 0x4a, 0xd5, 0x12, 0x2e, 0x2e, 0x38, 0xe0, 0xe9, 0x46, 0x1e,
  0xfe, 0x18, 0x1c, 0xe9, 0x0a, 0xe2, 0xe0, 0x23, 0x0c, 0x5a, 0x0f, 0x2b,
  0xdb, 0x18, 0xfa, 0x04, 0x13, 0xe8, 0x05, 0x59, 0x0c, 0x7f, 0xe5, 0xb9,
  0x04, 0xc9, 0x08, 0x1d, 0x3d, 0xe0, 0x3a, 0xf8, 0xe5, 0x12, 0x10, 0xfe,
  0x78, 0x57, 0x53, 0xf8, 0x19, 0x14, 0x23, 0xfd, 0xec, 0xf4, 0x10, 0x23,
  0xa8, 0x1e, 0xb6, 0x9a, 0xbb, 0xeb, 0xc1, 0xd3, 0xcf, 0x22, 0xc6, 0xa1,
  0xbe, 0xd7, 0xce, 0x08, 0x3e, 0xfa, 0xd5, 0x31, 0x2c, 0xf5, 0xcc, 0xcc,
  0xdb, 0xe1, 0xb7, 0xcd, 0xb0, 0xc4, 0x51, 0x13, 0xfb, 0xda, 0xc3, 0x38,
  0x28, 0xe5, 0xf5, 0xf9, 0x0d, 0xd8, 0x30, 0xe8, 0x48, 0x16, 0x02, 0xf8,
  0x39, 0x3c, 0x2a, 0x32, 0xec, 0x5a, 0x62, 0x13, 0x10, 0x42, 0xec, 0xe4,
  0x0f, 0x1c, 0xd3, 0xfd, 0x31, 0x11, 0xe4, 0xd5, 0xc9, 0xd2, 0xf8, 0xe1,
  0x4e, 0xee, 0x13, 0x58, 0x4f, 0xe1, 0x4f, 0x07, 0xe8, 0x45, 0xd7, 0x3c,
  0x3d, 0xeb, 0xd1, 0xce, 0xfc, 0xb9, 0xec, 0xe1, 0xa6, 0x59, 0x37, 0x39,
  0xec, 0xf3, 0x35, 0xfd, 0xe2, 0xca, 0xe6, 0x03, 0x12, 0xf0, 0x1f, 0x15,
  0x10, 0x1d, 0x35, 0x04, 0x01, 0xdd, 0x2b, 0x38, 0xcc, 0xf5, 0xd3, 0xd7,
  0xe2, 0x9c, 0xf9, 0xf2, 0xd0, 0x1b, 0xb5, 0x0a, 0x01, 0xf5, 0xee, 0x17,
  0x11, 0xfa, 0xbd, 0xfb, 0x1f, 0x24, 0x62, 0x5f, 0xf5, 0xf5, 0xff, 0x7f,
  0x50, 0x22, 0x4a, 0x52, 0x4a, 0xd0, 0x17, 0xe4, 0x18, 0xe0, 0x04, 0xf8,
  0xd7, 0xf3, 0x00, 0x44, 0x20, 0x36, 0xf2, 0x4d, 0x1a, 0x61, 0x56, 0x39,
  0x29, 0x2a, 0x2d, 0x59, 0x50, 0x57, 0x1f, 0xfd, 0x21, 0xbf, 0x12, 0x06,
  0x20, 0x2e, 0x32, 0x3e, 0xeb, 0xdf, 0xd6, 0xd3, 0xfa, 0xfd, 0xfa, 0x09,
  0x0d, 0x26, 0xf7, 0xfa, 0xe6, 0xc4, 0x6a, 0x43, 0x62, 0x54, 0x47, 0xf1,
  0xd9, 0xde, 0x19, 0xd3, 0x05, 0x00, 0x11, 0xe3, 0xaa, 0x1f, 0xba, 0x06,
  0xdb, 0xcc, 0xe2, 0xf8, 0x11, 0x30, 0x2d, 0xf1, 0x14, 0x21, 0x36, 0x59,
  0x4b, 0x32, 0x2a, 0x69, 0x58, 0xcd, 0x19, 0x35, 0x75, 0x6c, 0x58, 0x3f,
  0x1b, 0xf8, 0x12, 0x0c, 0x52, 0x2f, 0x25, 0x14, 0x1b, 0x5b, 0x3b, 0x39,
  0x0e, 0x22, 0xd3, 0xfc, 0xdd, 0x47, 0x25, 0x28, 0xfe, 0x53, 0x13, 0x2b,
  0x68, 0x2f, 0x03, 0xfa, 0x35, 0x43, 0xdc, 0xf3, 0xdc, 0x3a, 0x07, 0xc6,
  0xf8, 0x34, 0xf9, 0xff, 0xe7, 0xc3, 0x0c, 0x32, 0x29, 0x23, 0x58, 0x45,
  0x01, 0x37, 0x39, 0xe1, 0x29, 0xdd, 0x3c, 0xf8, 0x16, 0xe6, 0x0c, 0x11,
  0x18, 0x09, 0xef, 0xfc, 0x0b, 0x28, 0xe7, 0xee, 0xdf, 0xd0, 0x3a, 0x5f,
  0x70, 0x38, 0x18, 0xf3, 0x57, 0xbe, 0x1e, 0xee, 0xe4, 0x11, 0xfe, 0xd9,
  0xbf, 0x29, 0x28, 0xff, 0x45, 0x33, 0x21, 0xbb, 0xe5, 0x26, 0xfd, 0xed,
  0x32, 0x20, 0xd4, 0xf4, 0xec, 0xf8, 0xf3, 0xf0, 0xfe, 0x67, 0x22, 0x26,
  0xf9, 0xe7, 0x26, 0x27, 0x50, 0x40, 0x54, 0x0b, 0x19, 0xc4, 0x8b, 0x16,
  0xfe, 0xca, 0x87, 0xa1, 0x51, 0x24, 0x33, 0xe6, 0xe6, 0x17, 0x3e, 0xd1,
  0x68, 0x29, 0x3d, 0xa5, 0x32, 0x08, 0x47, 0xbb, 0x22, 0x15, 0x99, 0xe4,
  0xc0, 0x90, 0xd7, 0xfa, 0x48, 0x50, 0xf3, 0x55, 0xc5, 0x31, 0x93, 0x40,
  0xb2, 0x3e, 0xb2, 0xd8, 0xdc, 0x36, 0x0f, 0xe3, 0x5c, 0xba, 0xa5, 0xc8,
  0x12, 0x2d, 0x2e, 0x9d, 0x08, 0xfc, 0xac, 0x5b, 0xdf, 0x3b, 0xef, 0x99,
  0xde, 0xea, 0xc3, 0x1b, 0x5a, 0x16, 0xfd, 0x54, 0xdd, 0x32, 0xb9, 0xae,
  0x29, 0xfb, 0x28, 0x4c, 0x3c, 0x1d, 0x88, 0xf9, 0x28, 0x4a, 0xe8, 0xec,
  0x09, 0x11, 0xc9, 0xad, 0x17, 0x17, 0xe1, 0xac, 0xe7, 0x2b, 0xaf, 0x29,
  0xaa, 0xe5, 0x81, 0x91, 0x81, 0xac, 0xd8, 0x37, 0x2d, 0x90, 0xbe, 0xd1,
  0x2f, 0x89, 0xed, 0xb9, 0xca, 0x57, 0x53, 0xb1, 0xa4, 0x44, 0x0d, 0x3b,
  0x8f, 0x51, 0x4b, 0xe0, 0xcf, 0x00, 0x13, 0x2b, 0xf6, 0x0c, 0x0b, 0x57,
  0x8c, 0x17, 0x3c, 0x9a, 0x19, 0xfa, 0xcc, 0x20, 0xd3, 0xd0, 0x3f, 0xab,
  0xfc, 0xb7, 0x92, 0xef, 0x36, 0x5e, 0x13, 0xad, 0x95, 0xff, 0xde, 0x16,
  0xfa, 0x4a, 0x86, 0xe1, 0xd4, 0x48, 0x1a, 0x10, 0x8a, 0xea, 0x03, 0xac,
  0xd6, 0xd0, 0x0c, 0x9d, 0x98, 0x10, 0xca, 0x2e, 0x8d, 0x6b, 0xf0, 0xf8,
  0xab, 0xb9, 0x4f, 0xc3, 0x83, 0x64, 0xb3, 0xcd, 0xf6, 0xc5, 0x4d, 0x97,
  0xfc, 0xeb, 0x43, 0x4a, 0x37, 0xa4, 0xe6, 0xd8, 0x1d, 0xe8, 0xed, 0x03,
  0x92, 0x31, 0x40, 0x18, 0xe8, 0xf6, 0xd5, 0xda, 0xa9, 0x0f, 0x0b, 0x42,
  0x14, 0xf4, 0xe7, 0x20, 0x19, 0x59, 0x2e, 0x52, 0xec, 0xeb, 0xcd, 0xd9,
  0xd3, 0x13, 0xcc, 0x87, 0xcc, 0x9f, 0xa6, 0xc4, 0xee, 0xe5, 0x08, 0x38,
  0x2b, 0x1f, 0x2b, 0x0e, 0x42, 0x4e, 0x03, 0xc8, 0x0c, 0x32, 0x2d, 0xe1,
  0x2f, 0xbf, 0x05, 0x01, 0x0f, 0xa9, 0x2b, 0xfd, 0xbf, 0x02, 0x0b, 0x1c,
  0xdd, 0xd6, 0xd0, 0xec, 0x28, 0x16, 0x02, 0xd6, 0x0f, 0xdb, 0x1d, 0x2f,
  0x4b, 0xf8, 0x34, 0x70, 0x0f, 0x20, 0xed, 0x2c, 0x2d, 0x20, 0x16, 0x3c,
  0xad, 0xc8, 0xbb, 0x14, 0xc0, 0x0d, 0xec, 0xdd, 0x1b, 0x33, 0xed, 0x50,
  0x39, 0x22, 0x72, 0x63, 0x5d, 0x00, 0x22, 0xd6, 0xea, 0x16, 0xfc, 0x09,
  0xe3, 0x2d, 0x32, 0xe3, 0xd2, 0xc7, 0xa5, 0xac, 0x84, 0x48, 0xda, 0xf9,
  0xc7, 0xc0, 0xe7, 0x0e, 0x35, 0x14, 0xfe, 0x1e, 0xf8, 0x1e, 0xd5, 0xd3,
  0xda, 0x0c, 0xf4, 0x0c, 0x0d, 0xf3, 0x45, 0x40, 0x74, 0x51, 0xf8, 0x2a,
  0x1f, 0x0d, 0xb4, 0xee, 0xff, 0x00, 0x23, 0x1d, 0x07, 0x17, 0x2f, 0xde,
  0x3f, 0x48, 0x47, 0x2d, 0x2d, 0xfb, 0xfa, 0xec, 0x50, 0x49, 0x38, 0xc6,
  0xc0, 0xaf, 0xae, 0x02, 0xe2, 0xfd, 0xe9, 0x30, 0xe2, 0x44, 0xd6, 0xe8,
  0x11, 0x3d, 0x57, 0x61, 0x4b, 0x1b, 0x71, 0x31, 0x18, 0xf3, 0x01, 0x45,
  0x2b, 0x18, 0x23, 0xb7, 0x03, 0xaf, 0xe4, 0x2f, 0x03, 0xfb, 0x3e, 0x5b,
  0xfd, 0x32, 0x3c, 0x56, 0xe5, 0xf7, 0x06, 0xcd, 0xd7, 0x33, 0x44, 0x35,
  0xdd, 0xf2, 0x54, 0x0f, 0x21, 0xf0, 0xda, 0xf4, 0xfc, 0x76, 0x59, 0x27,
  0xdd, 0xd1, 0x81, 0x21, 0x4d, 0x24, 0xbd, 0x47, 0xed, 0xc3, 0x25, 0x05,
  0xf2, 0x35, 0xfe, 0xec, 0xf7, 0xf8, 0x0a, 0xf5, 0xf1, 0x59, 0x13, 0x26,
  0x35, 0x0d, 0x3f, 0x31, 0x47, 0x0d, 0xd2, 0x07, 0xcc, 0xf4, 0x1d, 0x2c,
  0xd8, 0x00, 0x13, 0x20, 0x07, 0x1a, 0x20, 0x34, 0xfd, 0xec, 0x0b, 0x11,
  0x1d, 0x1e, 0x19, 0x2a, 0x0a, 0xf8, 0x16, 0xee, 0x10, 0x12, 0xd8, 0x01,
  0x14, 0x20, 0x1e, 0xf6, 0xc1, 0x0a, 0xe5, 0xea, 0x19, 0xf4, 0x17, 0x08,
  0x08, 0xe6, 0xde, 0x10, 0x0b, 0xfc, 0x30, 0x1c, 0x17, 0x48, 0x34, 0x1e,
  0x05, 0xcb, 0x18, 0xe6, 0x21, 0xed, 0xc5, 0xd8, 0xbc, 0x1a, 0x17, 0xea,
  0xcd, 0xde, 0xcb, 0xe5, 0x3c, 0x1a, 0x3b, 0x4d, 0x2a, 0x37, 0x67, 0x56,
  0x0d, 0x23, 0x3f, 0x29, 0x36, 0xf8, 0x67, 0x7f, 0x75, 0xf6, 0x43, 0x2c,
  0xc3, 0xd9, 0xed, 0x15, 0x25, 0x2d, 0xf7, 0x42, 0x27, 0x0e, 0x32, 0x02,
  0x16, 0x3b, 0xcb, 0x42, 0x01, 0x1b, 0x58, 0x1f, 0xea, 0x1c, 0x4c, 0xe9,
  0x25, 0x52, 0x3d, 0x08, 0x06, 0x2d, 0x23, 0xe9, 0xda, 0x06, 0xdf, 0x0a,
  0x10, 0xd8, 0x0c, 0x1e, 0xf3, 0xde, 0xec, 0x39, 0x2f, 0xe2, 0x4c, 0x17,
  0xdd, 0x0c, 0x0a, 0x19, 0x1a, 0xea, 0x19, 0x0a, 0x07, 0x20, 0xf9, 0x1f,
  0xeb, 0xff, 0xdd, 0xc9, 0x12, 0xf4, 0xd1, 0xd1, 0xf1, 0x0d, 0x2d, 0x41,
  0x46, 0x7d, 0x43, 0xf2, 0x3a, 0xd1, 0xf6, 0x04, 0xee, 0xc7, 0xd2, 0xfe,
  0x14, 0xfc, 0x49, 0x04, 0x05, 0x12, 0x57, 0xe9, 0xcb, 0xe7, 0x32, 0xd1,
  0xf2, 0xd3, 0xef, 0xdc, 0x2f, 0x70, 0x0d, 0x21, 0xff, 0x63, 0x14, 0x0a,
  0x5a, 0x42, 0x53, 0x45, 0x29, 0x07, 0xf3, 0x42, 0x0a, 0x0f, 0xf0, 0xd4,
  0x27, 0xfa, 0xe3, 0xdf, 0xef, 0x25, 0xf4, 0xf2, 0x0c, 0x29, 0xc9, 0xe3,
  0x1f, 0x4f, 0xd9, 0xe9, 0x03, 0x24, 0xca, 0xd3, 0x08, 0xda, 0xb4, 0xf8,
  0xe2, 0xb8, 0x13, 0x15, 0x25, 0xfa, 0xb9, 0xf5, 0xfb, 0x0c, 0x46, 0xbf,
  0x07, 0x03, 0x0d, 0xf0, 0xbe, 0x6e, 0xe3, 0x2f, 0x0e, 0xf2, 0x3d, 0x17,
  0x4c, 0x5c, 0x1f, 0x14, 0x10, 0x32, 0x18, 0xc1, 0xea, 0xce, 0xea, 0x1c,
  0xc4, 0x12, 0xe2, 0x19, 0xd3, 0xf0, 0xd8, 0xea, 0x2e, 0x08, 0x1f, 0xcb,
  0x09, 0xd9, 0xd6, 0x1d, 0x0c, 0x0d, 0x4e, 0x4e, 0x62, 0x31, 0x43, 0x1a,
  0x7f, 0x4f, 0x46, 0x41, 0x28, 0xe2, 0xce, 0xb9, 0xc7, 0xe9, 0x0b, 0xec,
  0xd3, 0x06, 0xf5, 0xea, 0x3e, 0x1b, 0x3f, 0x1e, 0x4a, 0x2e, 0x0d, 0xe2,
  0xcd, 0xf5, 0x0a, 0x3a, 0x41, 0xf6, 0xf9, 0x27, 0xe4, 0xd8, 0x0e, 0xc4,
  0x15, 0xe2, 0x16, 0x1a, 0x00, 0x20, 0xa9, 0xee, 0xda, 0x1f, 0xbb, 0x20,
  0xd6, 0xb2, 0xd3, 0xe6, 0xff, 0x1a, 0xf9, 0x12, 0x17, 0xe1, 0xe4, 0x22,
  0xee, 0x3d, 0x3b, 0x17, 0xe2, 0x32, 0x27, 0x19, 0xf0, 0x49, 0xfd, 0x4e,
  0x24, 0x20, 0x6c, 0x17, 0x56, 0xef, 0xce, 0xf5, 0x16, 0xf2, 0x3a, 0x3e,
  0x57, 0x03, 0x01, 0x2d, 0x37, 0x27, 0xe0, 0x3e, 0x18, 0x4d, 0x5c, 0x64,
  0xfa, 0xc8, 0xd4, 0x01, 0xe8, 0x41, 0x33, 0x0f, 0x76, 0x48, 0x2c, 0x1d,
  0xeb, 0x44, 0x0b, 0xf2, 0x2f, 0xee, 0x1c, 0x10, 0xee, 0xf5, 0x1b, 0x25,
  0x49, 0x51, 0x48, 0x44, 0xe7, 0x0a, 0xf5, 0x36, 0x2a, 0x3f, 0x30, 0xe6,
  0x1b, 0xd9, 0xdf, 0x43, 0x3a, 0x55, 0x5b, 0x29, 0xcb, 0x2d, 0x4d, 0xf0,
  0x3d, 0xed, 0xd7, 0xbe, 0xbd, 0xcb, 0x12, 0x04, 0xbf, 0x1e, 0x27, 0x2a,
  0x50, 0x25, 0x47, 0x1c, 0x27, 0x60, 0x50, 0x22, 0x31, 0x1b, 0x40, 0x17,
  0x20, 0x40, 0xf7, 0x55, 0x5b, 0xd7, 0x19, 0x01, 0xe1, 0x43, 0x17, 0x44,
  0x60, 0xf2, 0x12, 0xee, 0xfd, 0xe7, 0xfb, 0x0f, 0x49, 0x00, 0x17, 0x40,
  0x19, 0x11, 0xf6, 0x49, 0xf4, 0x25, 0x54, 0x0f, 0x1c, 0x3e, 0x03, 0x02,
  0x22, 0xdf, 0x44, 0xe8, 0x05, 0xea, 0x30, 0xe0, 0xe6, 0x32, 0x26, 0x3d,
  0x53, 0x35, 0x19, 0xe8, 0x19, 0x60, 0xe4, 0xb5, 0x95, 0xd8, 0xe0, 0xc0,
  0xb9, 0xfb, 0xf4, 0x1d, 0xb2, 0xe1, 0xea, 0xc0, 0x10, 0xec, 0x15, 0x0c,
  0xad, 0x0f, 0xb6, 0xff, 0x1e, 0x1d, 0x16, 0xf7, 0x0e, 0xe7, 0x06, 0xf4,
  0xb4, 0xdc, 0x24, 0xc9, 0xc8, 0x19, 0x49, 0x1e, 0xc2, 0xc0, 0x07, 0x20,
  0x1c, 0xfc, 0x0c, 0xdf, 0x19, 0x26, 0xd2, 0xe3, 0x57, 0x29, 0x06, 0xfa,
  0x29, 0x61, 0x50, 0x49, 0x3c, 0x62, 0x64, 0x6b, 0x14, 0x23, 0xc5, 0x0e,
  0xe7, 0xc8, 0x09, 0xcc, 0xfa, 0xd9, 0x13, 0x15, 0xba, 0xf5, 0xfc, 0xed,
  0x1c, 0xfd, 0x26, 0x04, 0xf3, 0xec, 0x3d, 0x01, 0x14, 0xc0, 0xf8, 0x2c,
  0xec, 0x2c, 0x14, 0x91, 0x8b, 0x92, 0xa0, 0x81, 0xa4, 0x0e, 0x37, 0xe2,
  0x35, 0xea, 0x36, 0xdd, 0x09, 0xf8, 0x09, 0xcb, 0x00, 0xf4, 0xff, 0x15,
  0xd9, 0x38, 0x35, 0x2b, 0xdb, 0xdb, 0x11, 0x2f, 0xc8, 0xc9, 0xa9, 0xcc,
  0x0b, 0xb4, 0x04, 0x0f, 0xad, 0xba, 0xf8, 0x0c, 0xe3, 0xfe, 0xcf, 0x09,
  0xe6, 0x13, 0x28, 0x22, 0xde, 0xe7, 0xd7, 0xdc, 0xca, 0xc4, 0x34, 0x11,
  0x1a, 0x08, 0x0e, 0x00, 0xf4, 0x0a, 0xf0, 0x12, 0xe0, 0x2c, 0xf4, 0x23,
  0xe8, 0xe9, 0xec, 0x24, 0x27, 0x19, 0x23, 0xb5, 0xb7, 0x26, 0xcb, 0xb0,
  0xf0, 0x06, 0xdb, 0x24, 0xff, 0xdf, 0x0e, 0xcc, 0xfd, 0xee, 0x20, 0x0d,
  0xfb, 0x34, 0x32, 0xe3, 0x3a, 0x37, 0x10, 0xf8, 0xe3, 0x26, 0xe1, 0x31,
  0x09, 0xcd, 0x2c, 0x3d, 0xde, 0x01, 0xdd, 0x06, 0x31, 0x2e, 0xd8, 0xf6,
  0x08, 0xc9, 0x1f, 0xea, 0x08, 0xea, 0x0c, 0x16, 0xf6, 0x28, 0x3b, 0x24,
  0x20, 0x1f, 0x42, 0x2b, 0x1a, 0x2e, 0x42, 0x09, 0x0a, 0xbe, 0xb1, 0xee,
  0x23, 0x01, 0xbb, 0x94, 0x96, 0x53, 0x18, 0x2e, 0x40, 0x16, 0x1a, 0x04,
  0x2e, 0x2e, 0x06, 0x1c, 0xe2, 0x05, 0x0b, 0x2c, 0x0e, 0xcf, 0xc7, 0xee,
  0xe1, 0x22, 0x36, 0xe3, 0x09, 0x5e, 0x7f, 0x21, 0x01, 0x01, 0xe3, 0xca,
  0xdd, 0xec, 0xfb, 0xa2, 0xec, 0xbb, 0xcd, 0x32, 0x04, 0xd1, 0x61, 0x0f,
  0xe9, 0xf8, 0x3b, 0x18, 0x13, 0x10, 0x0e, 0xbe, 0xc5, 0xe0, 0x01, 0xfb,
  0xc2, 0x53, 0x1a, 0x29, 0xd9, 0x0f, 0x22, 0x2d, 0x61, 0x0c, 0x08, 0xd1,
  0xe8, 0xf1, 0xfb, 0x5e, 0x3d, 0x33, 0xbd, 0xef, 0x20, 0x2e, 0x19, 0xe5,
  0x05, 0x55, 0x23, 0x20, 0x01, 0xfa, 0xed, 0xff, 0x49, 0xf4, 0x36, 0x01,
  0x79, 0x06, 0x27, 0xbd, 0x0c, 0x05, 0xdb, 0x4a, 0xf5, 0x02, 0x33, 0x50,
  0x02, 0x21, 0x0a, 0xd7, 0x03, 0xea, 0x00, 0xfe, 0xce, 0x01, 0x12, 0xba,
  0x0d, 0x1e, 0xee, 0xea, 0x2a, 0xeb, 0x03, 0xff, 0x07, 0x14, 0x04, 0xa5,
  0xcf, 0xfa, 0x0d, 0x32, 0x0f, 0x0c, 0x03, 0x20, 0x20, 0x13, 0x32, 0x21,
  0xf1, 0x1d, 0xeb, 0x00, 0xc3, 0xf5, 0x03, 0x09, 0xbf, 0xd5, 0x07, 0x00,
  0xe2, 0xf4, 0xd6, 0xb0, 0xf0, 0x04, 0x07, 0x17, 0xfc, 0xb5, 0x0b, 0x22,
  0x16, 0xf8, 0xf0, 0xf4, 0xe7, 0x01, 0xee, 0x04, 0xf7, 0xf8, 0xf0, 0xcd,
  0x4a, 0x0b, 0x0b, 0xcb, 0xd2, 0x0f, 0xcf, 0xcf, 0x00, 0xec, 0xfd, 0xf8,
  0xe6, 0x0c, 0xd6, 0x0f, 0x2e, 0x34, 0xfb, 0xef, 0xc9, 0xfb, 0xec, 0x1f,
  0xfd, 0x02, 0xe3, 0xfc, 0x05, 0xe4, 0xd9, 0x14, 0x18, 0x21, 0x1d, 0x28,
  0x34, 0x4b, 0x10, 0x2b, 0xf5, 0xd0, 0xae, 0xe1, 0x34, 0x20, 0x1b, 0xff,
  0xea, 0xfb, 0x1d, 0x35, 0x44, 0x39, 0xf7, 0x02, 0x02, 0xf7, 0x26, 0x22,
  0xe2, 0xe3, 0xf3, 0x18, 0x44, 0x11, 0x04, 0xd6, 0xd3, 0xd9, 0xd6, 0xea,
  0x22, 0x5b, 0x63, 0x21, 0x31, 0xd9, 0xeb, 0x11, 0x22, 0x33, 0xd6, 0xcc,
  0xe6, 0xcd, 0xf9, 0xfa, 0xe2, 0xe7, 0xd1, 0xeb, 0xd2, 0x16, 0xd8, 0xdd,
  0xe0, 0x0b, 0xff, 0x02, 0xfa, 0x0e, 0x26, 0x12, 0xe8, 0x12, 0x2b, 0x30,
  0xef, 0xc6, 0xea, 0xdd, 0x38, 0x31, 0x10, 0xbe, 0x00, 0xdd, 0xe0, 0x16,
  0x43, 0x0d, 0x06, 0xfc, 0xe7, 0xe6, 0xbd, 0xd1, 0x3f, 0x7f, 0x2e, 0x12,
  0xef, 0xda, 0xeb, 0x0a, 0x27, 0xf4, 0x14, 0x0f, 0x1b, 0x34, 0xfe, 0xfa,
  0xd1, 0xde, 0xce, 0xf7, 0xe4, 0xf7, 0xfe, 0x32, 0xe9, 0x1d, 0x4c, 0x23,
  0x22, 0xbd, 0x1d, 0xe3, 0xee, 0x46, 0x25, 0x16, 0x40, 0x1a, 0x01, 0xde,
  0xc4, 0x34, 0xe9, 0xd1, 0xca, 0xd9, 0x14, 0x3c, 0x49, 0x59, 0x2d, 0x21,
  0x34, 0xda, 0x20, 0xdd, 0x1a, 0x07, 0x08, 0xec, 0x1c, 0xb5, 0x04, 0x2c,
  0xf6, 0x38, 0x17, 0xef, 0x20, 0x04, 0x3f, 0x61, 0x53, 0x66, 0x25, 0x40,
  0x18, 0x18, 0x08, 0x4c, 0x22, 0x3f, 0xcd, 0xf8, 0x46, 0x27, 0x6a, 0x71,
  0x58, 0xda, 0x13, 0xd0, 0x2f, 0xec, 0xed, 0x11, 0xa7, 0xca, 0x13, 0x0b,
  0xed, 0xcb, 0x29, 0xfe, 0x5c, 0x4c, 0x32, 0x06, 0x53, 0x1b, 0x55, 0x50,
  0xef, 0x21, 0x56, 0x1e, 0x20, 0x18, 0xfc, 0xf8, 0x30, 0x42, 0x38, 0x0b,
  0x13, 0x1e, 0xfa, 0x33, 0xc3, 0xf7, 0xd3, 0xd6, 0xa8, 0xe4, 0xbf, 0x1a,
  0xd7, 0xec, 0x21, 0x6c, 0x54, 0x46, 0x0f, 0x1d, 0x44, 0x21, 0xfd, 0xf3,
  0xee, 0xef, 0xf9, 0xdf, 0x08, 0x28, 0x34, 0x1c, 0x05, 0x22, 0x1a, 0xa0,
  0xc1, 0x21, 0x21, 0x13, 0x21, 0x0b, 0xeb, 0x55, 0x1c, 0x2a, 0xbc, 0xf9,
  0xac, 0x37, 0x58, 0x6a, 0x54, 0x3d, 0x4f, 0x34, 0x56, 0x4d, 0x02, 0x45,
  0x01, 0x43, 0xd6, 0x4c, 0x21, 0x33, 0xed, 0x40, 0x5b, 0x03, 0xc5, 0xf5,
  0x01, 0x11, 0xfb, 0xda, 0xe4, 0xef, 0xd6, 0x97, 0xd8, 0xc4, 0x02, 0xdb,
  0xb8, 0xc4, 0x33, 0xcf, 0xeb, 0xea, 0x14, 0xdd, 0xa9, 0x12, 0x12, 0x0c,
  0xd2, 0xe3, 0x2c, 0x11, 0xf9, 0x0f, 0x01, 0xfd, 0xde, 0x27, 0x37, 0xd3,
  0x03, 0xea, 0x22, 0x19, 0x81, 0xef, 0x0b, 0xff, 0x11, 0xf0, 0xdf, 0xda,
  0x18, 0x17, 0x16, 0x00, 0xd9, 0x22, 0xb2, 0xe9, 0xc6, 0xcf, 0x8d, 0x9b,
  0x49, 0xbf, 0xbd, 0xb9, 0xf4, 0xd2, 0xe2, 0x27, 0x13, 0x10, 0x39, 0xf9,
  0x33, 0x48, 0x4b, 0x14, 0x01, 0xeb, 0x0f, 0xd5, 0xc1, 0x11, 0x16, 0xc5,
  0xa4, 0x9c, 0xe9, 0xab, 0xcc, 0xca, 0xef, 0x18, 0x34, 0x14, 0xe2, 0x28,
  0x00, 0x17, 0x11, 0x08, 0xee, 0x41, 0x48, 0x1c, 0xfc, 0x0c, 0x1f, 0x14,
  0xf6, 0xc2, 0x32, 0x17, 0xfe, 0xb0, 0xfe, 0xcd, 0x3e, 0x3a, 0xc6, 0x27,
  0x28, 0xd6, 0xf9, 0xf1, 0x2e, 0x1e, 0x4b, 0x62, 0xf1, 0x13, 0x3b, 0x00,
  0x23, 0x48, 0xe0, 0xdc, 0x45, 0x3d, 0xe8, 0xc9, 0xf7, 0xf4, 0xce, 0xe1,
  0xdd, 0xf4, 0xfe, 0x02, 0x30, 0xf8, 0x39, 0xe1, 0x4b, 0x13, 0x62, 0x08,
  0x2d, 0x6d, 0x52, 0xf0, 0xd1, 0x13, 0x08, 0x00, 0x07, 0xde, 0xab, 0xd2,
  0x93, 0xfc, 0x91, 0xa2, 0xd4, 0x11, 0xcb, 0x83, 0xbc, 0x99, 0xfb, 0xd4,
  0xd7, 0x07, 0x11, 0xe4, 0xee, 0x0a, 0x0f, 0xbe, 0xc4, 0xe1, 0xcf, 0x1d,
  0xbe, 0x0c, 0x2b, 0x19, 0x00, 0x1e, 0x01, 0x38, 0x64, 0x0a, 0x95, 0x03,
  0x01, 0xb5, 0xf5, 0xd6, 0x58, 0xec, 0x36, 0x46, 0x47, 0x3d, 0x30, 0x71,
  0x02, 0x45, 0x4d, 0x55, 0x51, 0x74, 0xff, 0xa7, 0xdd, 0xaa, 0xeb, 0xc2,
  0xd6, 0xf1, 0xfb, 0xec, 0x3d, 0x20, 0xee, 0x38, 0xfe, 0xe1, 0xee, 0xf6,
  0x10, 0x12, 0x31, 0x4b, 0x3d, 0x17, 0x10, 0x2d, 0x14, 0x66, 0xac, 0xbe,
  0xba, 0xc3, 0xdb, 0xbd, 0xd5, 0x1b, 0x28, 0xf4, 0x0f, 0xeb, 0x0d, 0x04,
  0xf8, 0x0a, 0x31, 0xc3, 0xe9, 0xe8, 0x19, 0xfb, 0xf3, 0xe2, 0x2f, 0x46,
  0x2b, 0xf2, 0xd4, 0xde, 0xfc, 0xdd, 0x43, 0xc0, 0xdd, 0x81, 0xe3, 0xb9,
  0xed, 0xda, 0xce, 0xc9, 0xbf, 0xb1, 0xf6, 0x25, 0xd5, 0x59, 0xd7, 0x0b,
  0x3d, 0x24, 0x2b, 0x39, 0xce, 0xbf, 0xdd, 0x1a, 0xd8, 0xdb, 0xeb, 0x1c,
  0x05, 0x57, 0x5a, 0xf6, 0x45, 0xf4, 0x42, 0xb7, 0xa7, 0x4e, 0x9e, 0x10,
  0x20, 0xe6, 0x53, 0x30, 0x9b, 0xaa, 0x19, 0xcf, 0x0a, 0x9a, 0x8b, 0xbd,
  0xed, 0x1e, 0x9f, 0x4a, 0xf8, 0x29, 0xd0, 0x1d, 0x39, 0x05, 0xdd, 0x43,
  0xc8, 0xc3, 0x90, 0x30, 0x3c, 0x01, 0x87, 0x8e, 0xeb, 0xf6, 0xb9, 0x8c,
  0xfc, 0x17, 0x81, 0x50, 0xae, 0x48, 0x44, 0xba, 0xe8, 0x16, 0x4b, 0x4a,
  0xf6, 0xd3, 0x19, 0x29, 0xd1, 0x58, 0xb9, 0x42, 0xb6, 0xbd, 0x05, 0x26,
  0xb7, 0x12, 0xbc, 0xdd, 0x3f, 0xd8, 0x34, 0xb9, 0xc6, 0x0e, 0xe1, 0xb8,
  0x2f, 0x99, 0x0c, 0xe2, 0x16, 0x31, 0x50, 0x93, 0xae, 0x8c, 0x94, 0x0b,
  0x4e, 0xfe, 0x47, 0xc8, 0x2d, 0xda, 0x24, 0xff, 0x2e, 0xfb, 0xe5, 0xf6,
  0x1d, 0xf4, 0x1f, 0x51, 0xe9, 0xcc, 0x2c, 0xa0, 0x8f, 0x8f, 0xe4, 0xb2,
  0xd2, 0x2d, 0x98, 0x17, 0xf0, 0x59, 0xf7, 0x35, 0x35, 0xaf, 0xa5, 0xd0,
  0x22, 0x3d, 0xe2, 0x1f, 0x37, 0xfb, 0xbb, 0xbb, 0xda, 0xe8, 0x20, 0xbb,
  0x26, 0xd0, 0xf6, 0xc4, 0x5b, 0x05, 0x92, 0x28, 0xa0, 0x46, 0xa2, 0x39,
  0x8b, 0xb6, 0x5a, 0xea, 0xd6, 0x06, 0xf0, 0x89, 0x29, 0x3e, 0xf1, 0x2d,
  0x99, 0xa4, 0x38, 0x19, 0x31, 0xe0, 0x00, 0xb2, 0xcb, 0x2f, 0xb3, 0x41,
  0xd2, 0x26, 0xcc, 0x2f, 0x50, 0xc6, 0x3d, 0x48, 0xca, 0x92, 0x14, 0x2e,
  0x09, 0xca, 0x32, 0x23, 0xa9, 0xb9, 0x45, 0x60, 0x3e, 0x11, 0x64, 0x1a,
  0x47, 0xd4, 0x1c, 0x3f, 0xff, 0x35, 0x21, 0xfc, 0x12, 0x0d, 0x31, 0xdc,
  0xce, 0xc6, 0x18, 0xd8, 0xfb, 0x00, 0x28, 0x16, 0x1d, 0x5e, 0xfb, 0x30,
  0x3a, 0xfc, 0x07, 0xa8, 0x11, 0xfe, 0x30, 0xf1, 0x0c, 0x07, 0x06, 0x06,
  0x2b, 0xef, 0x36, 0xf2, 0xd3, 0xd7, 0xe6, 0xb2, 0x03, 0xc2, 0xe1, 0xe1,
  0x18, 0x4e, 0x39, 0x03, 0xd4, 0xfa, 0x10, 0xe9, 0x7f, 0x21, 0x1b, 0x44,
  0x04, 0x26, 0x26, 0x1c, 0xcc, 0xe1, 0x22, 0x31, 0x05, 0x18, 0xac, 0xa5,
  0xb5, 0x10, 0xcd, 0xf7, 0x11, 0x2c, 0x0c, 0x31, 0xcd, 0x1f, 0xe9, 0xd5,
  0x54, 0x28, 0x2a, 0x1a, 0xfd, 0x4d, 0x10, 0x45, 0x28, 0x1f, 0xe8, 0x2e,
  0x09, 0xf6, 0xe2, 0xa7, 0x13, 0xbf, 0xbb, 0xdd, 0xae, 0x0a, 0xda, 0xe8,
  0x07, 0x08, 0xee, 0x02, 0x17, 0x49, 0x28, 0x15, 0xef, 0xc2, 0xfc, 0x52,
  0x2f, 0x37, 0x45, 0x2d, 0x2a, 0xf0, 0xef, 0xc0, 0xb9, 0xaa, 0x11, 0x32,
  0xe2, 0x27, 0xb7, 0xc7, 0xde, 0x28, 0xf3, 0x08, 0x05, 0xe1, 0xe6, 0xed,
  0x2d, 0x26, 0x50, 0xd4, 0xc4, 0xd3, 0xea, 0xd2, 0x1d, 0xfd, 0x3e, 0x29,
  0x08, 0x17, 0xe4, 0xfd, 0xf9, 0xeb, 0x54, 0x4f, 0x3a, 0x2a, 0x51, 0x3c,
  0x5e, 0x4e, 0x27, 0xdd, 0x02, 0xf3, 0x2a, 0x20, 0x37, 0xf1, 0x49, 0x3a,
  0x06, 0x3e, 0x24, 0x00, 0xb2, 0x1e, 0x08, 0x49, 0x01, 0x16, 0x0d, 0x25,
  0x1a, 0x09, 0x36, 0x58, 0x48, 0xdf, 0x19, 0x33, 0xf0, 0x10, 0xf6, 0xfe,
  0xf0, 0xd9, 0x38, 0xf0, 0xf5, 0x19, 0x33, 0x73, 0xed, 0x0d, 0x0e, 0xed,
  0x45, 0xf7, 0x4b, 0x3d, 0x36, 0x2b, 0x02, 0x28, 0x41, 0xb0, 0x3b, 0x19,
  0x2c, 0x97, 0xa5, 0xeb, 0xaf, 0xcc, 0xbd, 0xb0, 0xdf, 0x52, 0xb2, 0x96,
  0x0c, 0x5c, 0xa4, 0x4c, 0x9d, 0xe7, 0x3e, 0x35, 0xa6, 0xdf, 0x12, 0xdc,
  0x21, 0xa0, 0x18, 0x27, 0xfc, 0x22, 0x1d, 0xd2, 0x11, 0xdb, 0x30, 0xe7,
  0xd5, 0x90, 0x58, 0x5e, 0x4f, 0x45, 0x55, 0x2c, 0x0e, 0x60, 0x03, 0x27,
  0x5c, 0x8e, 0xab, 0xfe, 0x02, 0xf8, 0x5b, 0xd3, 0xd5, 0x19, 0x09, 0xa3,
  0xae, 0xfe, 0x1e, 0xd9, 0xbb, 0xb4, 0xc9, 0xbd, 0x1f, 0xb0, 0xbb, 0x61,
  0x40, 0xa1, 0xd2, 0x3a, 0x1a, 0xe9, 0x12, 0x0a, 0x2b, 0xcf, 0x12, 0x87,
  0xc8, 0xc2, 0xd8, 0x3b, 0x19, 0x50, 0xd6, 0xcf, 0x14, 0x37, 0xb7, 0x62,
  0x51, 0xcc, 0xb3, 0x05, 0x23, 0x0c, 0x40, 0xb3, 0xc1, 0xf5, 0x95, 0xa8,
  0xe9, 0x99, 0x5e, 0x89, 0xf8, 0x12, 0x32, 0x9f, 0x44, 0x9f, 0x30, 0xea,
  0x4e, 0x21, 0xee, 0x8f, 0xed, 0xcd, 0xe5, 0xd1, 0x25, 0xf1, 0x02, 0x2c,
  0x9e, 0x2d, 0xec, 0x29, 0xa7, 0xa3, 0x81, 0xea, 0xbb, 0xd8, 0xf0, 0xe4,
  0x13, 0x2f, 0xef, 0x5b, 0x17, 0x84, 0x0b, 0x55, 0xbe, 0xc0, 0x06, 0x96,
  0xf6, 0xa0, 0xd4, 0x34, 0xc6, 0xf6, 0xfb, 0xd2, 0x85, 0x84, 0x37, 0x19,
  0xb2, 0xdd, 0x84, 0xdf, 0x9a, 0x3a, 0xa5, 0xc8, 0x1e, 0x49, 0x4a, 0xcb,
  0xf5, 0xad, 0x44, 0x4c, 0x3c, 0x34, 0xb8, 0x20, 0x2c, 0x58, 0xbb, 0xe6,
  0x44, 0xc7, 0xff, 0xf1, 0xc9, 0x0d, 0x8a, 0xc3, 0xab, 0xf2, 0x40, 0x3e,
  0x05, 0xcb, 0xa8, 0x28, 0x2a, 0x14, 0xe8, 0xad, 0xff, 0x48, 0x34, 0x00,
  0xee, 0xfe, 0x8c, 0x38, 0x2e, 0xc5, 0x1b, 0xfa, 0xf8, 0xbe, 0xf2, 0xe1,
  0xfe, 0x06, 0x00, 0x3d, 0x01, 0xf7, 0xe5, 0x08, 0x55, 0x1f, 0x0f, 0x15,
  0xd5, 0x0f, 0x33, 0xed, 0x26, 0x0a, 0xae, 0xf3, 0x95, 0xcb, 0xd8, 0xdf,
  0x20, 0xc5, 0x13, 0xfd, 0x0a, 0x13, 0xc5, 0x11, 0xe5, 0xc8, 0xeb, 0x00,
  0x32, 0xd8, 0xda, 0xce, 0xbb, 0xfb, 0xff, 0xde, 0x22, 0x1e, 0xff, 0xd9,
  0x12, 0x18, 0xfb, 0xea, 0x32, 0xb3, 0xa6, 0xa0, 0xd3, 0xb9, 0xcf, 0xcb,
  0xc5, 0x04, 0xde, 0xb9, 0x1e, 0x3e, 0xd3, 0x41, 0xd7, 0x2a, 0xd1, 0x18,
  0xde, 0x13, 0xce, 0xe8, 0xb8, 0xff, 0xb8, 0xcf, 0x36, 0xe8, 0x37, 0x4a,
  0x6b, 0x7f, 0x48, 0x11, 0xfe, 0xfe, 0xd6, 0x92, 0x1c, 0xeb, 0x1b, 0x07,
  0x20, 0x03, 0xeb, 0x13, 0x4f, 0x5c, 0x52, 0x0d, 0x14, 0xfe, 0x2e, 0x3d,
  0x2e, 0x13, 0xf9, 0x0c, 0x52, 0x4f, 0x4a, 0x31, 0xc9, 0xfb, 0xac, 0xda,
  0xe5, 0x1a, 0x31, 0x28, 0xe6, 0xfb, 0xef, 0x28, 0x18, 0x48, 0xd9, 0x10,
  0xc4, 0xa9, 0xec, 0xd0, 0xdd, 0xf6, 0xc0, 0xe6, 0x00, 0x9f, 0xe1, 0xe2,
  0xce, 0x10, 0x23, 0x3a, 0xe5, 0x00, 0x01, 0x26, 0xd8, 0x4c, 0x65, 0x5b,
  0x63, 0xfb, 0xe5, 0x0b, 0xf8, 0xf0, 0xe2, 0xd5, 0xe7, 0xad, 0xcb, 0x43,
  0x54, 0x45, 0xf4, 0x25, 0xdb, 0x03, 0xca, 0x3f, 0x11, 0x47, 0x73, 0x53,
  0x59, 0xde, 0xae, 0x03, 0xed, 0x38, 0x1e, 0x02, 0x30, 0x61, 0x0d, 0x22,
  0x30, 0xec, 0xce, 0xcb, 0xad, 0xfe, 0xd9, 0xee, 0xd5, 0x12, 0x63, 0x40,
  0xea, 0x0b, 0x04, 0xc0, 0xc0, 0x64, 0x51, 0x3c, 0x59, 0xe5, 0x0e, 0xae,
  0xb7, 0xb4, 0x4f, 0x3c, 0xf6, 0xe4, 0x15, 0xbf, 0x43, 0x16, 0x08, 0x23,
  0x51, 0xdd, 0x94, 0xa3, 0x2c, 0x24, 0x36, 0x22, 0xe8, 0x1c, 0x46, 0x20,
  0x30, 0x0c, 0x35, 0x97, 0xc7, 0x87, 0x4d, 0x8b, 0xab, 0x1c, 0x90, 0xa4,
  0x9a, 0x00, 0xb6, 0xc2, 0x48, 0xc3, 0xfa, 0xd7, 0x49, 0x17, 0x1a, 0x9d,
  0x38, 0xd0, 0xff, 0x4b, 0xf6, 0xef, 0xaa, 0x14, 0x0b, 0xee, 0x0a, 0x23,
  0x42, 0x8a, 0xf6, 0x5b, 0x54, 0xaf, 0x8d, 0x2b, 0xc0, 0xb1, 0x10, 0x1c,
  0x3e, 0x0b, 0x1f, 0x12, 0x95, 0x20, 0xe2, 0xfb, 0x37, 0x37, 0x05, 0x68,
  0x1c, 0x1c, 0x04, 0xf5, 0xc8, 0x29, 0xb5, 0x0f, 0x37, 0xe0, 0x94, 0xa5,
  0xed, 0xf0, 0x0c, 0xd8, 0xa3, 0xd9, 0x23, 0xa8, 0x87, 0xfb, 0x37, 0xe5,
  0x8b, 0x49, 0x37, 0x46, 0xb0, 0x31, 0xf8, 0x93, 0xb8, 0xaf, 0xcc, 0x5a,
  0xaf, 0xf6, 0xdb, 0xb1, 0xf3, 0xa7, 0x90, 0xec, 0x01, 0x26, 0xd4, 0x9b,
  0x10, 0xc9, 0x34, 0x2a, 0xd4, 0x91, 0x15, 0x9a, 0xe3, 0x22, 0x5f, 0x02,
  0x8f, 0x2f, 0x30, 0xe3, 0xb3, 0x14, 0xbd, 0xe8, 0x1d, 0x95, 0x06, 0x92,
  0x18, 0xda, 0xf5, 0xbe, 0xa3, 0xb2, 0x0f, 0x59, 0x27, 0xab, 0x39, 0x05,
  0xd6, 0x28, 0x0a, 0x9c, 0x34, 0x5d, 0x5f, 0x01, 0x56, 0x81, 0x89, 0xac,
  0x51, 0x62, 0xac, 0xd6, 0x33, 0x24, 0x49, 0x65, 0x23, 0x2d, 0x88, 0xf3,
  0xd2, 0x5b, 0x21, 0x60, 0xe5, 0x07, 0x9a, 0x0b, 0xf3, 0xea, 0x4e, 0x9e,
  0x34, 0x5d, 0xd5, 0x17, 0x5a, 0x9e, 0xd2, 0x49, 0xfb, 0x13, 0x87, 0x28,
  0x93, 0x4e, 0xad, 0x55, 0xb1, 0x44, 0x22, 0x26, 0xc8, 0xe1, 0xb8, 0xc6,
  0xa9, 0x17, 0x41, 0xff, 0xf2, 0xea, 0x2e, 0x2e, 0x27, 0x0f, 0xcd, 0x09,
  0xc0, 0xe1, 0x01, 0xc1, 0x23, 0xf0, 0xc9, 0xe5, 0x38, 0xfc, 0xf5, 0xfc,
  0xf8, 0xdd, 0x20, 0x15, 0xb2, 0x42, 0x21, 0x1a, 0x0c, 0x15, 0xab, 0xc9,
  0x42, 0x92, 0xd3, 0x12, 0xf5, 0xd6, 0x21, 0x0c, 0xda, 0xd8, 0xf0, 0xc3,
  0xbe, 0xbb, 0x0b, 0x10, 0x5e, 0xb7, 0xfd, 0xc1, 0xbd, 0x10, 0x1c, 0xfc,
  0x56, 0x44, 0xfa, 0x23, 0xe8, 0xe5, 0x14, 0x1f, 0xfa, 0xaa, 0x17, 0x3d,
  0x25, 0x07, 0x37, 0x13, 0x11, 0xd7, 0x48, 0x28, 0x3f, 0x21, 0x60, 0x64,
  0xd2, 0x0a, 0xe7, 0x01, 0xcf, 0xaa, 0xf9, 0x00, 0xc0, 0x9f, 0x41, 0xd7,
  0x88, 0xd3, 0xe8, 0xca, 0x82, 0x04, 0xab, 0xf7, 0xca, 0xee, 0xb2, 0x10,
  0xa9, 0x04, 0xfc, 0xe0, 0x22, 0xd8, 0xe7, 0xce, 0xd5, 0xf8, 0xf3, 0x3b,
  0x37, 0x20, 0x34, 0x35, 0xa4, 0x04, 0x1b, 0x53, 0x1e, 0x53, 0xd1, 0xf2,
  0xa4, 0xfe, 0xf6, 0x2f, 0x0d, 0xcc, 0x56, 0xa8, 0xfd, 0x0c, 0xbe, 0x4b,
  0xce, 0x60, 0xde, 0x35, 0x4e, 0xd9, 0xc7, 0xd9, 0x0c, 0x0b, 0x9e, 0xcc,
  0x16, 0xc2, 0x38, 0xc5, 0xfe, 0x4d, 0x18, 0xa6, 0xc9, 0x4c, 0x4f, 0xc8,
  0x5f, 0xcc, 0x04, 0xde, 0x3b, 0x2b, 0x11, 0x2a, 0x01, 0xd2, 0x36, 0x24,
  0x17, 0xb1, 0xe5, 0x0a, 0xb6, 0x23, 0x1d, 0x30, 0xc2, 0x58, 0x62, 0x13,
  0x15, 0x22, 0x26, 0xed, 0xa5, 0xc5, 0x58, 0xab, 0xe2, 0xf7, 0x1c, 0x3a,
  0x51, 0x37, 0x16, 0x59, 0x15, 0x38, 0xf7, 0xec, 0x62, 0xd4, 0x81, 0xf8,
  0xb0, 0xcb, 0xd1, 0xc5, 0xf7, 0x06, 0x26, 0xf5, 0x1f, 0x10, 0x3e, 0xe8,
  0xea, 0xef, 0x3b, 0xad, 0xe2, 0xd0, 0x0e, 0xdb, 0xc5, 0xc8, 0xea, 0xaf,
  0x08, 0xdf, 0xca, 0x17, 0xd1, 0x1c, 0xdf, 0x54, 0x13, 0x24, 0x1f, 0xe2,
  0xcb, 0xe0, 0xf4, 0xce, 0xf5, 0xe7, 0xdc, 0xe5, 0x2c, 0xe5, 0xf9, 0xe1,
  0xc9, 0xb4, 0x06, 0x36, 0x28, 0x47, 0x1d, 0x28, 0xf3, 0x20, 0x26, 0x1c,
  0x30, 0x3e, 0xf1, 0x01, 0x28, 0x31, 0x2e, 0x2b, 0xc8, 0x40, 0xe4, 0x04,
  0xfd, 0x23, 0xbf, 0xba, 0x4e, 0x0f, 0xba, 0xf4, 0x18, 0x36, 0xff, 0xd4,
  0x32, 0x33, 0xf7, 0x37, 0x1b, 0x00, 0x52, 0x06, 0x6b, 0x6b, 0x6e, 0x36,
  0x31, 0xfc, 0x11, 0x51, 0xdd, 0x13, 0xf1, 0x90, 0xc5, 0x34, 0x01, 0x92,
  0x81, 0x23, 0xd8, 0x20, 0xfa, 0xe4, 0xc4, 0xf5, 0xf9, 0xe5, 0xc9, 0xbb,
  0x0b, 0x04, 0xf5, 0x39, 0xf9, 0xe1, 0xce, 0x22, 0x1c, 0xe2, 0x27, 0x38,
  0x04, 0x36, 0x4d, 0x29, 0x45, 0xc9, 0xa6, 0x01, 0xc0, 0xa8, 0xf9, 0xb1,
  0x05, 0xd5, 0xfb, 0x18, 0x1b, 0x44, 0x12, 0x64, 0x47, 0x2a, 0xec, 0xf9,
  0x09, 0x35, 0x3e, 0xf9, 0xf1, 0xe4, 0xaf, 0x06, 0xb1, 0x46, 0xe0, 0x17,
  0xf4, 0x4a, 0xfe, 0x3f, 0x35, 0xd5, 0xe9, 0x4b, 0x21, 0x32, 0x1f, 0x68,
  0x3f, 0x1f, 0x1c, 0xd6, 0x3a, 0x14, 0x14, 0xe0, 0x43, 0x7a, 0xe1, 0xca,
  0xf3, 0xed, 0x35, 0x63, 0x46, 0xf1, 0x5d, 0x12, 0x63, 0x07, 0x03, 0x1a,
  0xe5, 0xca, 0x0d, 0x70, 0x27, 0x51, 0x1a, 0x17, 0xfc, 0x0f, 0x44, 0xc3,
  0xca, 0x02, 0x56, 0x50, 0xf7, 0xab, 0xe3, 0xa1, 0x17, 0x3d, 0x2e, 0x35,
  0x30, 0x3e, 0xee, 0xde, 0x3c, 0x57, 0x54, 0xfd, 0x26, 0x0c, 0xd9, 0xd5,
  0xe5, 0xf5, 0xca, 0x81, 0xde, 0xe4, 0x0e, 0x0c, 0xe2, 0xcd, 0x09, 0x14,
  0xe1, 0xf8, 0x1a, 0x12, 0xf5, 0x12, 0x0b, 0xeb, 0x0e, 0xd4, 0x03, 0xbb,
  0xe5, 0x00, 0xb9, 0x12, 0xc8, 0x17, 0x1f, 0xc0, 0x10, 0xba, 0xbf, 0x2a,
  0x10, 0x47, 0xff, 0x28, 0xf9, 0x3f, 0x16, 0x2b, 0x3e, 0xe6, 0x21, 0xf5,
  0x1d, 0x12, 0x34, 0x5d, 0xcd, 0x07, 0x20, 0xf9, 0x0b, 0x4d, 0xcf, 0xc8,
  0x24, 0xfd, 0xc7, 0xb1, 0x22, 0x25, 0xed, 0x1f, 0x1e, 0xf1, 0x3a, 0xee,
  0x18, 0x0a, 0x4a, 0x27, 0x51, 0x2a, 0x60, 0x04, 0xd1, 0xe1, 0x06, 0x23,
  0x0f, 0xad, 0xcc, 0x88, 0xa2, 0xd0, 0xcf, 0x8b, 0xd7, 0x36, 0xdf, 0xbb,
  0x05, 0xbb, 0xaa, 0xac, 0x42, 0x2d, 0xcb, 0x0b, 0x2e, 0xbc, 0xf8, 0xcd,
  0x1c, 0xb5, 0xce, 0xdf, 0x0c, 0x2e, 0x66, 0xe2, 0x23, 0xef, 0xd6, 0x25,
  0x2e, 0xf0, 0xd9, 0xcc, 0xa5, 0x02, 0x14, 0x0c, 0xf9, 0x27, 0x2e, 0xe7,
  0x2e, 0x16, 0x17, 0x48, 0xf1, 0x35, 0x54, 0xf2, 0xea, 0x75, 0x36, 0xd3,
  0xee, 0xcb, 0xa6, 0x08, 0xd7, 0xff, 0xc4, 0xed, 0x2b, 0x23, 0xe5, 0x48,
  0x3d, 0x21, 0x45, 0xe2, 0x33, 0x3b, 0x4d, 0xf3, 0xe8, 0xe1, 0x09, 0x40,
  0xdf, 0xfd, 0x0d, 0xe5, 0xa5, 0xcc, 0x22, 0xd2, 0xb8, 0x21, 0x1c, 0x16,
  0xf7, 0x1a, 0x25, 0x0f, 0x2f, 0xcf, 0x0e, 0xea, 0xd7, 0x0d, 0xd8, 0x24,
  0xdb, 0x1e, 0xe7, 0xe1, 0x27, 0xfc, 0xbf, 0xdf, 0xd8, 0x25, 0x1e, 0x1f,
  0xee, 0xf1, 0xb9, 0xd2, 0x16, 0xfa, 0xde, 0x19, 0xc2, 0xb5, 0x1c, 0x1a,
  0xf3, 0xe2, 0x8b, 0x49, 0xb4, 0x87, 0x94, 0xcc, 0x99, 0x50, 0xde, 0x3c,
  0xb9, 0xed, 0x63, 0xee, 0xb8, 0xd8, 0xea, 0x43, 0xef, 0xb2, 0x10, 0x98,
  0x83, 0xe9, 0xd5, 0xb8, 0xc8, 0x9e, 0x3a, 0x5c, 0x46, 0x5b, 0xb1, 0xec,
  0xfc, 0xd2, 0x96, 0xeb, 0xb1, 0xac, 0xcd, 0xdc, 0x3d, 0x04, 0x26, 0x81,
  0xce, 0x38, 0x3a, 0x1a, 0xac, 0xab, 0x08, 0x0e, 0x00, 0xcb, 0xce, 0xea,
  0x40, 0xdc, 0x34, 0x32, 0xa6, 0xd6, 0x81, 0x24, 0xcd, 0x4e, 0x06, 0xe3,
  0xaf, 0x60, 0x03, 0xf6, 0xea, 0x45, 0xc9, 0xde, 0xc8, 0xef, 0x51, 0x9a,
  0xde, 0x14, 0x1f, 0x9d, 0x52, 0x55, 0x5a, 0xd1, 0xf7, 0x12, 0x12, 0x08,
  0xbf, 0xe9, 0xf9, 0xe2, 0xd2, 0x2c, 0xd1, 0x82, 0x88, 0x5f, 0x4d, 0x45,
  0xc2, 0xab, 0x0f, 0x16, 0x84, 0x9d, 0x39, 0xcb, 0x1f, 0x50, 0xba, 0xd9,
  0x39, 0xb7, 0x9f, 0x46, 0x6f, 0xbe, 0xa2, 0x8a, 0x45, 0xe0, 0x42, 0x30,
  0xe0, 0xe1, 0x10, 0x83, 0x57, 0xd7, 0x61, 0xe6, 0xb2, 0x40, 0xfa, 0x8a,
  0xeb, 0xb3, 0x67, 0x04, 0x33, 0xd0, 0x51, 0x02, 0x99, 0x94, 0xfc, 0x40,
  0x4b, 0xd6, 0xcf, 0xcc, 0xcc, 0xa1, 0x02, 0x94, 0x8a, 0xca, 0xa9, 0x8e,
  0xff, 0xfa, 0xef, 0x47, 0x29, 0xc4, 0xf9, 0x1f, 0xc4, 0x12, 0xd8, 0xd4,
  0x96, 0xae, 0xe3, 0x9f, 0x1c, 0xaa, 0xc9, 0x48, 0x5c, 0x3f, 0x10, 0x28,
  0xfb, 0xfa, 0x52, 0x0e, 0xf6, 0xbe, 0x1b, 0x97, 0x08, 0x62, 0xba, 0x92,
  0xbc, 0x8b, 0xed, 0x31, 0x67, 0x96, 0xe6, 0xd8, 0xb9, 0x83, 0xdc, 0x20,
  0xae, 0x01, 0x4c, 0xb5, 0x1e, 0x0b, 0xf8, 0x19, 0xe2, 0x20, 0x24, 0xe2,
  0xef, 0x55, 0x47, 0x01, 0x3a, 0xe5, 0x1c, 0x18, 0xe4, 0x1e, 0x17, 0xfe,
  0x04, 0xd2, 0x42, 0x7b, 0x61, 0x4f, 0xd5, 0x11, 0x2f, 0x1b, 0x4a, 0x4e,
  0x3c, 0x27, 0x3c, 0x3a, 0x6d, 0x01, 0x21, 0x46, 0x0d, 0x0e, 0x38, 0xc5,
  0xeb, 0x56, 0xff, 0xfa, 0x0c, 0x3b, 0x15, 0x12, 0xdc, 0x10, 0xe6, 0xf2,
  0xfa, 0x20, 0x4b, 0x5e, 0xda, 0xdd, 0x04, 0x17, 0xf8, 0x59, 0x64, 0x26,
  0x44, 0x0f, 0xa4, 0xb6, 0xdc, 0x07, 0x21, 0xdb, 0xe3, 0x1f, 0xff, 0x27,
  0x31, 0xb4, 0xef, 0xff, 0x0b, 0x2a, 0xec, 0x39, 0x27, 0x2c, 0x1d, 0xb9,
  0xe8, 0xdc, 0x9c, 0xa6, 0xb4, 0xdc, 0xea, 0x27, 0xf8, 0xd6, 0xe5, 0xfe,
  0x07, 0xe7, 0x92, 0x9a, 0xb8, 0x13, 0xd3, 0xda, 0x16, 0x56, 0xe3, 0x4f,
  0x20, 0x33, 0xf0, 0xad, 0x17, 0xf4, 0x2f, 0xf4, 0x0f, 0x34, 0xed, 0xf4,
  0x81, 0xb7, 0x8c, 0xd5, 0xb0, 0x45, 0x23, 0xe9, 0xdb, 0xfd, 0x25, 0x02,
  0xd1, 0x39, 0x1e, 0x2d, 0x31, 0x2f, 0xef, 0x2a, 0x1c, 0xba, 0x48, 0x21,
  0x53, 0xf0, 0xc8, 0x48, 0x38, 0x40, 0x14, 0xd6, 0xfc, 0x0f, 0xd3, 0x04,
  0xe1, 0xcf, 0x23, 0x29, 0xd5, 0x31, 0x1c, 0x22, 0xda, 0xc2, 0xcf, 0xe9,
  0x23, 0x07, 0xe7, 0xf7, 0xc2, 0xae, 0x1b, 0xce, 0x89, 0xab, 0xd7, 0xac,
  0xde, 0x57, 0x36, 0xea, 0x17, 0x45, 0xf1, 0x48, 0xde, 0x0b, 0xcc, 0x0c,
  0x0a, 0x13, 0xe9, 0x1f, 0x40, 0x2a, 0xd1, 0xda, 0x3e, 0x31, 0xce, 0xfa,
  0xdc, 0xcc, 0x94, 0xa8, 0x20, 0xf9, 0x55, 0x16, 0xdc, 0xb7, 0xdd, 0xdd,
  0xe5, 0x1a, 0xe3, 0x1f, 0xdb, 0xf5, 0xd9, 0xcf, 0xfe, 0x45, 0x1f, 0xf4,
  0x01, 0x71, 0x0c, 0x51, 0x2f, 0x33, 0x43, 0x2c, 0x19, 0x1d, 0x0b, 0xaf,
  0x00, 0xe6, 0x3c, 0xea, 0xf7, 0x0a, 0x09, 0x0b, 0x3d, 0xfd, 0xdf, 0x2d,
  0x19, 0x07, 0x22, 0x1e, 0xe1, 0xf7, 0x06, 0xf6, 0x00, 0xf8, 0x21, 0x45,
  0x13, 0xfd, 0x40, 0xf2, 0x44, 0x48, 0x35, 0x17, 0xbc, 0xbb, 0xf6, 0xb8,
  0x06, 0x3d, 0xeb, 0x11, 0xd2, 0xc8, 0xdc, 0x2d, 0x18, 0xf5, 0x2c, 0x5a,
  0x74, 0x24, 0x58, 0xf2, 0x07, 0xea, 0xde, 0x29, 0xd7, 0x1e, 0xe5, 0xfa,
  0xcc, 0xc9, 0xc7, 0xf8, 0x0b, 0xe0, 0xdd, 0x1e, 0x1a, 0x31, 0x62, 0x0b,
  0x65, 0x6a, 0x2b, 0x12, 0xff, 0x00, 0x25, 0x23, 0x71, 0x1b, 0x23, 0x3a,
  0x7f, 0x4d, 0x68, 0x31, 0xf2, 0x0c, 0x24, 0x28, 0xe1, 0x52, 0x5d, 0x4e,
  0xe9, 0xf7, 0x43, 0x42, 0x1b, 0x27, 0xd5, 0xf9, 0x38, 0x35, 0x52, 0x58,
  0x19, 0xf9, 0x46, 0x50, 0x1a, 0x06, 0x18, 0xf7, 0x1f, 0xd6, 0x1f, 0x00,
  0x3a, 0x03, 0x0c, 0xf8, 0xd9, 0x0d, 0xcb, 0xd4, 0x27, 0xb1, 0x50, 0x2a,
  0xf3, 0x5a, 0x15, 0x34, 0xe8, 0x03, 0x07, 0x45, 0x2d, 0x26, 0x08, 0x3b,
  0xff, 0x31, 0x0c, 0xd2, 0x40, 0x29, 0xfd, 0xf2, 0x2b, 0xfa, 0xd9, 0x02,
  0x01, 0x14, 0xfe, 0x52, 0x78, 0x5b, 0x19, 0x4a, 0x6e, 0xc5, 0xd1, 0x20,
  0xf9, 0xdd, 0x0c, 0xae, 0x21, 0x28, 0xe6, 0x2c, 0xe3, 0x3f, 0x4f, 0x03,
  0xec, 0xd7, 0xd7, 0x3e, 0xff, 0x13, 0xd4, 0xbc, 0x1a, 0x28, 0x17, 0x39,
  0xd4, 0x33, 0x1e, 0x0c, 0x00, 0x4c, 0x0f, 0xf4, 0x47, 0xf5, 0x33, 0x23,
  0x26, 0x0c, 0x16, 0x08, 0x3a, 0x46, 0xf8, 0x13, 0xec, 0xfe, 0x3b, 0xe1,
  0xf1, 0xd0, 0x99, 0xf2, 0xe7, 0x43, 0xeb, 0xca, 0xdc, 0xf3, 0xbb, 0x19,
  0x0c, 0x20, 0xd7, 0x12, 0xdf, 0xcf, 0x2d, 0x13, 0x37, 0x0a, 0x09, 0xe4,
  0x06, 0x05, 0x2a, 0xd4, 0x10, 0xfd, 0x0f, 0xcd, 0x04, 0x59, 0xcf, 0x01,
  0xf5, 0x24, 0xfa, 0xf6, 0x3f, 0xfe, 0xec, 0x35, 0x32, 0xd9, 0x41, 0x3f,
  0xf1, 0x0f, 0x12, 0x13, 0x29, 0x3a, 0xa6, 0xc8, 0x00, 0x34, 0xb5, 0xf5,
  0x0d, 0xf2, 0x31, 0x0d, 0xd5, 0xe3, 0xf7, 0xeb, 0x3b, 0x26, 0x13, 0x10,
  0x1b, 0x42, 0x7f, 0x15, 0x24, 0xe1, 0x12, 0xd0, 0xaf, 0xad, 0xe7, 0xfe,
  0x23, 0x12, 0xaa, 0x9d, 0xa8, 0x61, 0xd6, 0xf4, 0xce, 0xb3, 0xf3, 0xc5,
  0x2d, 0xff, 0xd9, 0xe6, 0xd0, 0x10, 0xee, 0xf8, 0xd1, 0xad, 0xe8, 0xc7,
  0xd3, 0x16, 0x6b, 0x11, 0xff, 0xef, 0xe0, 0xfe, 0x42, 0xcf, 0x26, 0xe8,
  0x2d, 0xe9, 0x02, 0xe7, 0x17, 0xdb, 0x17, 0x20, 0xea, 0x03, 0x2b, 0xea,
  0x22, 0x35, 0xdc, 0x1d, 0x33, 0x00, 0xe2, 0xe5, 0xe7, 0x23, 0x00, 0xbd,
  0x1b, 0x19, 0xf1, 0xc4, 0x0a, 0x28, 0x06, 0xfd, 0x16, 0x01, 0xf6, 0xf2,
  0xf7, 0xde, 0x47, 0x4d, 0xf6, 0x2d, 0xee, 0xed, 0xdb, 0x4d, 0xcf, 0x2a,
  0x1f, 0x42, 0x13, 0x02, 0xfb, 0x3c, 0x2e, 0x30, 0x28, 0xee, 0xfd, 0x3e,
  0x41, 0x17, 0xd7, 0xe7, 0xcc, 0x02, 0xca, 0x08, 0xe2, 0xef, 0x15, 0x29,
  0x3b, 0x41, 0x38, 0xfd, 0xe1, 0xd8, 0x4b, 0x11, 0xd9, 0xf8, 0xf5, 0xfb,
  0xfe, 0x01, 0xe6, 0xc2, 0x09, 0xd0, 0xfe, 0xfd, 0x18, 0x2a, 0xd1, 0xef,
  0x37, 0xd3, 0xf0, 0xf3, 0xf1, 0x22, 0x2c, 0x59, 0x63, 0x64, 0x49, 0x3c,
  0x27, 0xfb, 0xcd, 0xd6, 0xf0, 0xf5, 0xde, 0x2e, 0xf2, 0x15, 0xe9, 0xf9,
  0x01, 0xb8, 0xbd, 0x12, 0xe1, 0x03, 0x04, 0xdd, 0x09, 0x1d, 0xe7, 0x01,
  0x22, 0x2b, 0xc5, 0xf2, 0x26, 0x19, 0x30, 0x16, 0x12, 0x38, 0x45, 0xd5,
  0x14, 0xf1, 0xee, 0xce, 0xf4, 0x15, 0xe2, 0xfd, 0x17, 0xce, 0x0b, 0xce,
  0x20, 0xbc, 0xe1, 0xf2, 0x3c, 0x4f, 0x43, 0xf4, 0xfe, 0xd5, 0xfd, 0xdf,
  0xf3, 0xe9, 0xdb, 0x03, 0xf8, 0x06, 0xeb, 0xef, 0x33, 0xb9, 0xea, 0x06,
  0x29, 0x0c, 0x0b, 0x52, 0x29, 0x20, 0x36, 0x08, 0x43, 0xf4, 0x0f, 0x08,
  0x37, 0xfd, 0x2e, 0x57, 0x42, 0x3b, 0x6e, 0x6e, 0xed, 0x04, 0xf3, 0x34,
  0x1f, 0x43, 0xff, 0x6b, 0x5d, 0x5f, 0xf3, 0xf2, 0x47, 0x03, 0xba, 0xfe,
  0xd7, 0x3d, 0x0f, 0x16, 0x4c, 0x2c, 0x2a, 0x00, 0x15, 0x07, 0x21, 0x0e,
  0xcd, 0xce, 0xdb, 0xea, 0x11, 0xfc, 0xae, 0x09, 0xec, 0xe3, 0xf1, 0x0c,
  0x0a, 0xaf, 0xe6, 0x45, 0x51, 0x3f, 0x3b, 0x36, 0xf4, 0x16, 0x4b, 0x53,
  0x51, 0x4e, 0x0d, 0x2f, 0x48, 0xe0, 0xe0, 0x16, 0xff, 0x15, 0x1f, 0xe6,
  0x50, 0x47, 0xee, 0xe3, 0xdc, 0xd8, 0x43, 0x7c, 0x33, 0x7f, 0x79, 0x4d,
  0x47, 0xa8, 0xcf, 0xe4, 0xc6, 0xd2, 0x26, 0x07, 0xfb, 0x17, 0x18, 0x11,
  0x0d, 0xf4, 0xfe, 0xba, 0x2b, 0xe0, 0x10, 0xfe, 0x13, 0xf5, 0xf8, 0x09,
  0x4f, 0x2e, 0x2c, 0x23, 0xf1, 0x4b, 0x4e, 0x15, 0x6c, 0x2e, 0x73, 0xea,
  0xc8, 0xdc, 0xe5, 0xe4, 0xc7, 0xab, 0x06, 0x18, 0x18, 0x34, 0x1c, 0x20,
  0xf1, 0xda, 0x09, 0x2d, 0x6b, 0x15, 0x09, 0x09, 0x32, 0x63, 0xda, 0x09,
  0x28, 0xce, 0xe8, 0x9f, 0x96, 0xfe, 0xcd, 0x24, 0xb9, 0xbf, 0x13, 0xa5,
  0xe5, 0xec, 0xbe, 0xc6, 0xbc, 0x2b, 0xfd, 0x2f, 0x3f, 0xb1, 0xb8, 0xed,
  0xdc, 0x41, 0xe1, 0xea, 0x2b, 0x4e, 0xf1, 0x2a, 0x37, 0x17, 0xbc, 0xf8,
  0x41, 0xf3, 0xd8, 0xa0, 0xf1, 0xe5, 0xf9, 0x23, 0x1c, 0xc5, 0xdf, 0xf6,
  0x41, 0x39, 0xd6, 0x03, 0x15, 0xca, 0xd1, 0xc2, 0x07, 0xf5, 0x1d, 0x2f,
  0xa6, 0x17, 0xe2, 0xac, 0x34, 0x06, 0xe2, 0x33, 0x40, 0x25, 0x1b, 0x52,
  0x6c, 0x13, 0xad, 0x03, 0x1e, 0x5a, 0x33, 0xfb, 0x27, 0xf2, 0xcc, 0x3c,
  0x59, 0x40, 0x5c, 0x11, 0xfd, 0x22, 0x31, 0x0d, 0x35, 0x43, 0x30, 0x25,
  0x7f, 0xff, 0x34, 0x41, 0x39, 0xb5, 0xcb, 0xf4, 0xd7, 0x0c, 0x23, 0x05,
  0x5e, 0x10, 0x0c, 0xe0, 0x1f, 0x36, 0x2c, 0xdd, 0xd7, 0xa9, 0xf6, 0xe2,
  0xf8, 0xcf, 0x9f, 0xec, 0xcc, 0x02, 0x99, 0xbe, 0xb1, 0xd6, 0x06, 0x0b,
  0x52, 0x19, 0x53, 0x23, 0xf1, 0x6d, 0x42, 0x65, 0x2a, 0xff, 0x06, 0xd2,
  0x2d, 0x34, 0xeb, 0xc2, 0xd5, 0xd8, 0xa0, 0x18, 0x3d, 0x2d, 0xfa, 0xd1,
  0xee, 0xcf, 0xc5, 0xf5, 0x39, 0x59, 0x2d, 0x34, 0x70, 0xab, 0xf9, 0x13,
  0xd6, 0x1a, 0xbd, 0xff, 0x49, 0x03, 0xf3, 0xe1, 0x57, 0x06, 0xeb, 0x06,
  0xce, 0xff, 0xdf, 0xfb, 0x3a, 0x38, 0x54, 0x31, 0x42, 0x3b, 0x70, 0x67,
  0xdc, 0x21, 0x10, 0x1e, 0x47, 0x3f, 0x33, 0xd0, 0x36, 0x1c, 0x02, 0x48,
  0x0e, 0xcb, 0x1d, 0x3d, 0x46, 0x6a, 0x10, 0x3c, 0xf3, 0xb4, 0x2d, 0x02,
  0x03, 0xff, 0x19, 0x15, 0xef, 0x5e, 0x6a, 0x1b, 0xf8, 0x21, 0xc7, 0x8c,
  0xca, 0x17, 0xf4, 0xfc, 0xd6, 0xca, 0x06, 0xf9, 0x2b, 0x1b, 0x35, 0x26,
  0xda, 0x38, 0xde, 0xf8, 0xd0, 0x30, 0x09, 0xab, 0x25, 0x54, 0xfa, 0x30,
  0x31, 0xef, 0xec, 0x1a, 0x16, 0x05, 0x19, 0x39, 0x09, 0x19, 0xbb, 0xd1,
  0xb0, 0x2e, 0x52, 0xea, 0xf7, 0xc3, 0x8b, 0xa9, 0xb0, 0x29, 0xf8, 0xf8,
  0x2b, 0xcb, 0x29, 0xfa, 0x0b, 0x07, 0xd1, 0x14, 0x31, 0x18, 0x13, 0xeb,
  0xbc, 0x35, 0xea, 0x2f, 0x0b, 0xea, 0x09, 0xc3, 0xcf, 0xe4, 0x9b, 0x23,
  0x50, 0x29, 0x58, 0x53, 0x11, 0xf3, 0xbb, 0xaa, 0xcb, 0x53, 0xfe, 0x1d,
  0x03, 0x06, 0x4e, 0x44, 0x17, 0xf9, 0xec, 0x3b, 0x45, 0x75, 0x30, 0x04,
  0xe8, 0x1d, 0x06, 0xa1, 0x9f, 0xb3, 0xd8, 0xe1, 0xc2, 0x3e, 0x28, 0xf0,
  0xf9, 0xf6, 0x04, 0x65, 0x22, 0xfb, 0x16, 0xfa, 0x0c, 0xc5, 0xce, 0xd6,
  0xcf, 0xce, 0xe7, 0x0a, 0x20, 0xcf, 0xe1, 0x03, 0x13, 0x31, 0x3b, 0x49,
  0x58, 0x1f, 0x66, 0x08, 0x12, 0x1f, 0x50, 0xf4, 0x3f, 0x2d, 0xf9, 0x03,
  0x09, 0x06, 0xb1, 0x1a, 0x21, 0x3d, 0x14, 0x59, 0x3c, 0x12, 0xee, 0xeb,
  0xd8, 0xd4, 0xc5, 0x5d, 0x52, 0x00, 0xd5, 0x1a, 0xc7, 0x16, 0x2a, 0xe9,
  0x50, 0x0a, 0x53, 0x33, 0xf4, 0xd1, 0xb3, 0xe6, 0xf9, 0x0d, 0xd4, 0x0e,
  0x48, 0x4a, 0xf5, 0x31, 0x06, 0x81, 0xbf, 0xf6, 0x57, 0x15, 0x39, 0x18,
  0x28, 0xc6, 0x40, 0x20, 0x1c, 0xe0, 0x07, 0xc5, 0x6c, 0x16, 0xc8, 0x2e,
  0xde, 0xa8, 0xea, 0xe3, 0x1e, 0xcb, 0x86, 0xde, 0xe9, 0x98, 0x2a, 0xb3,
  0xda, 0xbd, 0x71, 0xe5, 0xb3, 0x99, 0xa4, 0x15, 0xe2, 0xd5, 0x88, 0x95,
  0x42, 0xb9, 0x18, 0x82, 0xc2, 0xee, 0xe5, 0x37, 0xff, 0xeb, 0xa2, 0x58,
  0x47, 0x93, 0x12, 0xc6, 0xe2, 0x0a, 0xc7, 0xcd, 0xb7, 0xbe, 0x91, 0x81,
  0x59, 0xd3, 0x28, 0xfe, 0xf9, 0x8e, 0xb2, 0x62, 0x2d, 0xb1, 0xf9, 0xa6,
  0x31, 0xf6, 0xc9, 0x8a, 0x49, 0x0c, 0x40, 0xf3, 0x9c, 0x1d, 0xc6, 0x30,
  0x47, 0x6c, 0x24, 0x17, 0xb9, 0x03, 0x0c, 0x6b, 0x81, 0x35, 0xc0, 0x23,
  0x1b, 0x10, 0xbf, 0x54, 0x29, 0xab, 0x58, 0xf4, 0x18, 0x32, 0x29, 0x03,
  0x5c, 0xaa, 0x9b, 0xb8, 0x69, 0xb5, 0x27, 0x69, 0x95, 0x4e, 0xe7, 0x17,
  0x81, 0xb0, 0x21, 0x20, 0x95, 0xfd, 0xba, 0xf5, 0xd0, 0xfb, 0x20, 0x5b,
  0x69, 0x52, 0x59, 0x07, 0x15, 0x67, 0xaf, 0x04, 0x8d, 0x59, 0xd6, 0xf7,
  0x8b, 0x26, 0x98, 0x3b, 0x95, 0xfa, 0x9c, 0xc7, 0xa3, 0xde, 0xca, 0xb8,
  0xa8, 0x99, 0xd8, 0xfd, 0xd7, 0xbe, 0x62, 0x3b, 0xd7, 0x40, 0x1c, 0x3d,
  0xfe, 0x21, 0xed, 0xea, 0x4f, 0x8a, 0xa2, 0x0a, 0xfc, 0x45, 0xd0, 0x55,
  0x59, 0xad, 0xa5, 0x05, 0xbe, 0xfa, 0x02, 0x9d, 0x2b, 0xc0, 0x20, 0x11,
  0xfe, 0xce, 0x2d, 0x66, 0x9a, 0x5b, 0x49, 0x14, 0x4e, 0xff, 0xb6, 0x66,
  0x10, 0x1f, 0x66, 0x1c, 0xac, 0xa1, 0xd1, 0x61, 0x9a, 0xc5, 0x63, 0x4f,
  0x03, 0x76, 0xd9, 0xab, 0xad, 0xbe, 0xb7, 0x18, 0x47, 0x0c, 0x95, 0xb8,
  0xf2, 0xf4, 0x1a, 0xf4, 0xef, 0xf9, 0x0c, 0xec, 0xf2, 0x0c, 0x07, 0xcb,
  0xdf, 0xed, 0x12, 0x13, 0xf7, 0xe4, 0x26, 0xfb, 0xe6, 0x14, 0xd3, 0xbb,
  0xe5, 0x0b, 0x16, 0x09, 0x17, 0xfb, 0x10, 0xfd, 0x1b, 0x13, 0xff, 0x25,
  0xef, 0xed, 0xe6, 0x07, 0x14, 0xef, 0x02, 0x15, 0xf4, 0xd3, 0x02, 0x02,
  0x13, 0x19, 0xeb, 0x2f, 0xf9, 0x1f, 0x1c, 0xf3, 0xf8, 0xee, 0x0f, 0xd5,
  0xd9, 0xe5, 0x23, 0xe6, 0x05, 0x03, 0xf9, 0xd2, 0xe5, 0x05, 0x3b, 0x4e,
  0x2c, 0x49, 0xdd, 0x34, 0xd6, 0x1e, 0xdd, 0xe0, 0xd9, 0x13, 0xe9, 0xe5,
  0x0d, 0x13, 0x23, 0xfb, 0xf3, 0x0f, 0x0b, 0x20, 0x2f, 0x39, 0x55, 0x17,
  0x53, 0x30, 0x3d, 0x48, 0x10, 0xf9, 0xdd, 0x0d, 0xef, 0x09, 0x6a, 0x72,
  0x6e, 0x18, 0xf1, 0x35, 0xfc, 0x09, 0xdb, 0xee, 0xd7, 0x1a, 0x08, 0x1f,
  0x03, 0xe1, 0xeb, 0xfa, 0xf0, 0xfb, 0x35, 0x1d, 0x51, 0x7f, 0x67, 0x3b,
  0x49, 0xeb, 0x19, 0x10, 0x29, 0x01, 0xd7, 0xdf, 0x00, 0x19, 0x08, 0xfe,
  0x00, 0xf1, 0xf9, 0x1f, 0x14, 0xfd, 0xf5, 0x1f, 0x0d, 0xe8, 0x28, 0x0e,
  0xe6, 0xe1, 0xe8, 0x15, 0x07, 0x25, 0x0c, 0xe2, 0xeb, 0x29, 0xe3, 0x04,
  0x1a, 0xfb, 0xf4, 0xdc, 0x1a, 0x3f, 0x14, 0xe9, 0x19, 0xd8, 0xfd, 0xf5,
  0x06, 0xf2, 0x20, 0x1f, 0x65, 0x4a, 0x26, 0xf9, 0x00, 0xed, 0x30, 0x32,
  0xf0, 0x05, 0xe8, 0xdc, 0x43, 0x17, 0xfd, 0xf8, 0x12, 0xff, 0x3b, 0x22,
  0x06, 0xe8, 0x29, 0x30, 0x14, 0x24, 0x34, 0x14, 0xfc, 0x5d, 0xff, 0x45,
  0xe4, 0xfc, 0x22, 0x2c, 0x0b, 0x07, 0x22, 0x09, 0xf6, 0x48, 0x3a, 0xf9,
  0xde, 0xf8, 0x10, 0x0e, 0xd7, 0xde, 0x36, 0x33, 0xf9, 0xd3, 0xfb, 0x98,
  0x0f, 0xca, 0x26, 0xff, 0x9c, 0xc7, 0xcb, 0x0b, 0x2f, 0x3c, 0x39, 0x3d,
  0x4b, 0x20, 0x41, 0xf7, 0x5b, 0x69, 0x51, 0x13, 0xfc, 0x13, 0x29, 0x34,
  0x35, 0x23, 0x41, 0x21, 0x3c, 0x3f, 0x26, 0x1a, 0x51, 0x02, 0xc8, 0xec,
  0xee, 0xf1, 0xf0, 0xfe, 0x2a, 0x07, 0x34, 0xee, 0x35, 0x22, 0x14, 0x66,
  0x30, 0x54, 0x31, 0x40, 0x38, 0x04, 0x7f, 0x10, 0xf9, 0x3b, 0xe5, 0x1d,
  0x21, 0x04, 0xdd, 0x0d, 0x13, 0x06, 0x3c, 0x0e, 0x44, 0x4a, 0x21, 0x0b,
  0x54, 0xeb, 0x17, 0xbc, 0xe5, 0xc3, 0xe4, 0x33, 0x09, 0x1f, 0x04, 0xd0,
  0xee, 0xda, 0xcc, 0xca, 0x0f, 0xf9, 0x3a, 0x09, 0x0c, 0x0f, 0xe2, 0xd8,
  0x1c, 0x18, 0xd2, 0xfb, 0xd1, 0x12, 0xc6, 0xa0, 0xd2, 0xa1, 0x10, 0xe9,
  0x05, 0x0a, 0x1d, 0x35, 0x00, 0x06, 0x30, 0xc9, 0xdc, 0x28, 0xf2, 0xcb,
  0xd9, 0x08, 0xff, 0x26, 0x3d, 0x22, 0x3e, 0x42, 0xfc, 0x51, 0x5f, 0x64,
  0x67, 0x52, 0x70, 0x41, 0x5c, 0x4c, 0x21, 0xc1, 0xd0, 0xf3, 0xf0, 0x10,
  0xc8, 0xba, 0xca, 0xdf, 0xff, 0xe5, 0x14, 0x32, 0xc2, 0x2f, 0xd4, 0x44,
  0x38, 0x08, 0x35, 0xd9, 0xb8, 0xdf, 0xef, 0xd6, 0x04, 0xe6, 0xe4, 0xed,
  0x0d, 0xe4, 0xd2, 0x94, 0x81, 0x26, 0x4e, 0x0b, 0x2c, 0x32, 0x47, 0xf8,
  0xd3, 0xf3, 0x07, 0xea, 0x24, 0x07, 0xf2, 0x2b, 0x36, 0x40, 0xf1, 0xd5,
  0x08, 0xda, 0x10, 0xae, 0xa5, 0xb7, 0xf2, 0x0f, 0xc8, 0x9b, 0xdc, 0xb1,
  0xe4, 0x05, 0xe9, 0xbf, 0x18, 0xf0, 0x2c, 0x3c, 0x02, 0xef, 0x28, 0xef,
  0x17, 0x1a, 0x35, 0xeb, 0x15, 0xdb, 0x0e, 0xe0, 0xd1, 0x00, 0xe3, 0xc7,
  0xfb, 0xd3, 0x77, 0x35, 0x4c, 0x3f, 0xc4, 0xbc, 0x39, 0x48, 0x11, 0x0c,
  0x38, 0x02, 0x05, 0x3a, 0x51, 0x32, 0x53, 0x2d, 0x39, 0x33, 0x2f, 0xcf,
  0x33, 0xfd, 0xd5, 0xe3, 0x0a, 0x50, 0x1e, 0x37, 0x02, 0xf1, 0xee, 0xf9,
  0xf0, 0x44, 0x27, 0x57, 0x2f, 0xeb, 0xf4, 0x58, 0x56, 0x17, 0xfe, 0x0d,
  0x2b, 0xf6, 0xe0, 0x9b, 0xb3, 0xda, 0xf5, 0xe9, 0x19, 0x37, 0x19, 0xd8,
  0xde, 0x10, 0xf8, 0x20, 0x24, 0x2f, 0x2d, 0xe2, 0xd3, 0x04, 0x34, 0xd4,
  0xb7, 0xe1, 0xac, 0x05, 0xdb, 0xf3, 0x13, 0xe8, 0x04, 0xce, 0x3a, 0x12,
  0x1b, 0x08, 0xbe, 0xe9, 0xa2, 0xc4, 0xcf, 0xd4, 0x08, 0x2f, 0x3d, 0x07,
  0x09, 0xd8, 0xe9, 0xd0, 0xe5, 0x22, 0x26, 0x20, 0xb1, 0x2d, 0x3a, 0x14,
  0xb5, 0xbe, 0xba, 0xf1, 0xf0, 0xde, 0xfd, 0x48, 0x25, 0x06, 0x2b, 0x12,
  0xeb, 0x48, 0x16, 0x44, 0x18, 0x04, 0x4a, 0x42, 0x35, 0x1a, 0x08, 0x36,
  0x32, 0x11, 0x10, 0x36, 0x23, 0x22, 0xfd, 0x19, 0x18, 0xd4, 0x24, 0xd9,
  0xca, 0xdb, 0xec, 0x38, 0xf3, 0xef, 0xe0, 0xfc, 0xf0, 0xfc, 0xe4, 0xde,
  0x15, 0x1e, 0xfa, 0x37, 0xda, 0xfe, 0xfe, 0xb3, 0x85, 0x86, 0xa8, 0xb2,
  0xab, 0x44, 0x10, 0xf0, 0x25, 0xe4, 0x27, 0x36, 0xec, 0xff, 0x22, 0x23,
  0xd9, 0xd4, 0xd2, 0x4c, 0x2f, 0xd8, 0xee, 0xca, 0x10, 0x08, 0xfc, 0xe3,
  0x81, 0xb6, 0xe7, 0xed, 0x2e, 0xe2, 0xfe, 0xd2, 0xe1, 0xde, 0xb1, 0xc4,
  0x4d, 0x37, 0x56, 0x34, 0x3a, 0x0b, 0x3f, 0x33, 0xd2, 0xd2, 0xcc, 0x27,
  0x21, 0xe8, 0x38, 0x81, 0xf4, 0x06, 0xde, 0xfa, 0xcb, 0xd4, 0x2d, 0x59,
  0x53, 0x05, 0xf5, 0xdb, 0x06, 0x0f, 0x06, 0xdc, 0x30, 0xee, 0x2e, 0x06,
  0x11, 0xd9, 0x3f, 0xdf, 0x04, 0x34, 0xe5, 0x12, 0x28, 0xfd, 0xf8, 0x4a,
  0xfc, 0xfc, 0x1f, 0xc8, 0x11, 0xec, 0x1c, 0x15, 0x61, 0x1f, 0x11, 0x3e,
  0x06, 0x01, 0xef, 0x30, 0xff, 0xde, 0x0f, 0x02, 0x01, 0x7f, 0xc8, 0xea,
  0xbd, 0xb1, 0x25, 0xe6, 0xdb, 0xdc, 0xdd, 0xd6, 0xfc, 0xc5, 0xca, 0xe0,
  0x04, 0xf5, 0x0b, 0x26, 0xf1, 0x41, 0x6c, 0xdb, 0xc0, 0xdd, 0x02, 0xcb,
  0xc6, 0xc4, 0xbf, 0xb0, 0xbc, 0x0f, 0x98, 0xf5, 0xc7, 0x56, 0xce, 0xcc,
  0xee, 0xa0, 0xa7, 0xd0, 0xf0, 0xf9, 0x30, 0x03, 0x2c, 0xe6, 0xdb, 0xbb,
  0xf3, 0xc6, 0xb9, 0xf5, 0x10, 0xd6, 0x28, 0xee, 0x42, 0x28, 0xa9, 0x2d,
  0xd5, 0xfd, 0xc1, 0xf5, 0xd3, 0xdf, 0xd7, 0xe6, 0x21, 0xf0, 0x1b, 0x50,
  0x4f, 0xe0, 0x64, 0x64, 0xdb, 0xf7, 0x39, 0x41, 0x34, 0x46, 0xe2, 0x0d,
  0x04, 0xc5, 0xd4, 0x09, 0xcf, 0x1b, 0xed, 0x3c, 0x13, 0x0e, 0xe2, 0xf4,
  0x2c, 0x0d, 0x0f, 0xdd, 0x46, 0xfc, 0xf6, 0xf8, 0x08, 0x19, 0x42, 0xe4,
  0xee, 0x55, 0xeb, 0xc9, 0x96, 0xe0, 0xc4, 0xcf, 0xd5, 0xff, 0xef, 0x1c,
  0xf2, 0x3f, 0x16, 0x63, 0x12, 0x1e, 0x29, 0x15, 0xd7, 0xae, 0xef, 0x0a,
  0x32, 0xf6, 0x25, 0xcf, 0xed, 0xe7, 0x45, 0x02, 0xe4, 0x22, 0x1e, 0xe8,
  0xff, 0xbe, 0xb4, 0x24, 0xf5, 0x19, 0xcd, 0xf8, 0xf8, 0x13, 0x13, 0x3a,
  0x1a, 0x27, 0xa5, 0xe9, 0x62, 0x43, 0x2d, 0x44, 0x2f, 0x36, 0xeb, 0x2a,
  0x74, 0x1c, 0x04, 0x36, 0x30, 0xf6, 0xf7, 0x31, 0x09, 0xf7, 0x14, 0xf0,
  0xe5, 0x62, 0x48, 0x05, 0x0d, 0x12, 0x30, 0x6d, 0x46, 0x58, 0x2d, 0x1d,
  0x4e, 0x1f, 0xd7, 0x20, 0x58, 0x50, 0x15, 0x0c, 0x55, 0xc2, 0xfb, 0x3f,
  0x16, 0x1f, 0xe9, 0x41, 0xc9, 0x28, 0x0f, 0x04, 0xec, 0x0b, 0xe4, 0x24,
  0x58, 0x47, 0x12, 0x0b, 0xe5, 0xe6, 0x0f, 0x6c, 0x3e, 0xf8, 0xfd, 0x49,
  0xe4, 0x1f, 0x30, 0x27, 0x27, 0x31, 0x32, 0x36, 0xeb, 0xd6, 0xf6, 0x0e,
  0xc9, 0xff, 0xb3, 0x13, 0x02, 0x15, 0xdf, 0x1f, 0xeb, 0xfa, 0x51, 0x60,
  0x29, 0x5b, 0x4f, 0x0d, 0x1b, 0xe4, 0xfc, 0x55, 0xf3, 0x34, 0x58, 0x0c,
  0x44, 0x05, 0x4c, 0x55, 0xfc, 0x17, 0xf6, 0x11, 0xfb, 0x10, 0x0a, 0x47,
  0xf3, 0x3a, 0xa5, 0xd4, 0x02, 0xda, 0xc5, 0x0e, 0xc6, 0x33, 0x41, 0x7f,
  0x19, 0x06, 0x0e, 0x62, 0x08, 0x3b, 0xf8, 0x40, 0xe8, 0x37, 0xbb, 0xdc,
  0x3a, 0x12, 0x07, 0xf9, 0xea, 0xdd, 0x42, 0x65, 0x6a, 0x49, 0x4f, 0x16,
  0x60, 0xd0, 0x34, 0xd6, 0xba, 0xe2, 0x09, 0x51, 0x17, 0xe8, 0xd5, 0xfe,
  0xbf, 0x29, 0xda, 0x0c, 0x22, 0xd3, 0x3d, 0x39, 0x0a, 0xd3, 0x45, 0x16,
  0x50, 0xdb, 0x01, 0xe2, 0x4e, 0x26, 0x25, 0x18, 0xf7, 0x09, 0x05, 0xb6,
  0xbd, 0xdb, 0xf6, 0x22, 0x24, 0xeb, 0x42, 0xf1, 0x0e, 0xeb, 0xdd, 0x1c,
  0xfc, 0xfd, 0xfb, 0xf2, 0xa9, 0xce, 0xc0, 0xce, 0x0d, 0x41, 0x05, 0x0c,
  0xbd, 0xc1, 0xe0, 0x2e, 0xf7, 0xca, 0xc9, 0xd8, 0x13, 0x13, 0x33, 0x9d,
  0xd2, 0x64, 0x02, 0x23, 0xc8, 0x2e, 0x1c, 0xdc, 0xe6, 0xa0, 0xce, 0x3b,
  0xfb, 0xb5, 0x02, 0x29, 0x69, 0xf4, 0xae, 0x1f, 0x04, 0x49, 0x1b, 0xef,
  0x8f, 0xba, 0xed, 0xf4, 0x17, 0xda, 0xe6, 0x01, 0x92, 0xd1, 0xad, 0xcd,
  0xa8, 0xb0, 0xeb, 0xe6, 0x29, 0x18, 0x50, 0x21, 0x9c, 0xd6, 0x99, 0x9e,
  0x1d, 0xd7, 0x18, 0x34, 0xc8, 0xb1, 0x00, 0xe9, 0xd1, 0x83, 0x04, 0x4d,
  0x13, 0x3e, 0x0b, 0x88, 0xfe, 0x61, 0x01, 0x91, 0x23, 0x44, 0xd6, 0x34,
  0x48, 0x0c, 0xc2, 0x45, 0x5e, 0xe6, 0xf6, 0x90, 0xf1, 0xac, 0xa9, 0x92,
  0xa3, 0xbf, 0xf0, 0xc0, 0x87, 0x5e, 0x62, 0x58, 0x28, 0x38, 0xf7, 0xe5,
  0xe9, 0xa0, 0x13, 0xd3, 0xff, 0xfa, 0x38, 0x1a, 0xc2, 0x45, 0x93, 0x8b,
  0xb8, 0xa0, 0x8f, 0x8f, 0xd1, 0x4a, 0x9c, 0x81, 0x93, 0x0e, 0x1c, 0xc0,
  0x38, 0x61, 0xb3, 0x95, 0xe5, 0x26, 0x5c, 0x84, 0x86, 0x5d, 0x33, 0x25,
  0xc3, 0xef, 0xa7, 0x57, 0x8c, 0x17, 0x88, 0xfc, 0x89, 0xc8, 0x19, 0xaf,
  0xb3, 0x34, 0x4c, 0xcc, 0x09, 0x8e, 0x4b, 0x4b, 0x3c, 0xb7, 0x30, 0x06,
  0x15, 0x04, 0xb7, 0xd5, 0x14, 0xfe, 0xf9, 0xa3, 0xf7, 0xcc, 0x17, 0xa2,
  0x07, 0xdb, 0xb2, 0xf8, 0xf9, 0x98, 0xdf, 0xd5, 0x52, 0xfb, 0xf1, 0xe4,
  0x20, 0x1b, 0xda, 0x90, 0xf0, 0x63, 0x0f, 0xa1, 0x9b, 0xe5, 0x12, 0x3d,
  0x92, 0x58, 0x59, 0x40, 0x86, 0x94, 0x61, 0x45, 0x17, 0x4e, 0xb0, 0xcd,
  0xcd, 0x20, 0x94, 0x04, 0x9d, 0xc2, 0x0c, 0x00, 0xa4, 0xd7, 0x33, 0x5d,
  0xf3, 0x2b, 0xda, 0x13, 0xe1, 0xff, 0xc5, 0xf8, 0x5d, 0x4b, 0x38, 0x4c,
  0x01, 0x0f, 0x3d, 0x64, 0x19, 0x00, 0x40, 0xe3, 0x01, 0xd5, 0x0f, 0x3d,
  0x29, 0x03, 0x14, 0xdc, 0x0f, 0x0a, 0x36, 0x41, 0x1d, 0x25, 0xcb, 0x3d,
  0x6e, 0x5c, 0x60, 0x56, 0x0e, 0x13, 0x31, 0x46, 0x34, 0x45, 0x43, 0xed,
  0x1b, 0x1f, 0x11, 0xfc, 0x11, 0xda, 0x32, 0x1a, 0xef, 0x0a, 0x2b, 0xe2,
  0xf6, 0x29, 0x13, 0xe3, 0x09, 0x19, 0xfb, 0xe9, 0x23, 0xc5, 0x4d, 0x15,
  0xf2, 0x38, 0x2e, 0x22, 0xfd, 0x09, 0x2b, 0xee, 0x08, 0xdf, 0x26, 0x17,
  0xfc, 0xe9, 0x06, 0xca, 0xf1, 0x0c, 0xd3, 0xfd, 0xe1, 0xd9, 0xc2, 0x04,
  0xca, 0x13, 0x38, 0x28, 0x7f, 0x37, 0x70, 0x2e, 0x3b, 0xd6, 0x49, 0x01,
  0x1d, 0x40, 0x43, 0x3b, 0x14, 0x2c, 0x08, 0x2c, 0x12, 0x15, 0x28, 0x27,
  0x45, 0x4f, 0x10, 0x08, 0xec, 0x49, 0xcc, 0xe6, 0xbd, 0xdc, 0xe9, 0xec,
  0xda, 0x44, 0x0c, 0x57, 0x4d, 0x51, 0x02, 0x3b, 0x2a, 0x33, 0x02, 0xe0,
  0xec, 0x2a, 0xfa, 0xff, 0xe4, 0xff, 0xdd, 0x01, 0x0c, 0xe2, 0x3a, 0x34,
  0x5a, 0x24, 0x19, 0x19, 0x0d, 0x03, 0x2d, 0xfb, 0xf0, 0xd2, 0xd9, 0x10,
  0x06, 0xff, 0xef, 0xf4, 0xe2, 0x07, 0x08, 0xcc, 0x1c, 0x22, 0x1d, 0x0b,
  0x2a, 0xc4, 0x42, 0xff, 0x20, 0xea, 0xdd, 0x12, 0x10, 0x15, 0x17, 0xd5,
  0xe4, 0xe3, 0x11, 0x0e, 0xbb, 0xfb, 0x2d, 0xf2, 0xdb, 0x2b, 0x32, 0xed,
  0x1d, 0x2f, 0xe6, 0x26, 0x13, 0x0f, 0x07, 0xe8, 0x01, 0xeb, 0xb9, 0x19,
  0x3d, 0x31, 0x61, 0x47, 0xcc, 0x00, 0x02, 0x20, 0xbe, 0x92, 0xb4, 0xc5,
  0xb4, 0x46, 0x42, 0xa8, 0xb8, 0xa2, 0x9f, 0x2f, 0x41, 0x5d, 0x9b, 0x8c,
  0xef, 0x9f, 0x39, 0x8b, 0x88, 0x8e, 0x95, 0xf5, 0xf1, 0x97, 0x3c, 0xd5,
  0xc7, 0x03, 0xd8, 0x91, 0x37, 0x95, 0x95, 0x8f, 0x0e, 0xc7, 0xfb, 0x16,
  0x05, 0xda, 0x8b, 0x45, 0xdf, 0xfe, 0xee, 0xf2, 0x15, 0xdc, 0xc0, 0x29,
  0x29, 0x4f, 0x1c, 0xd5, 0x96, 0x09, 0x48, 0x87, 0x43, 0x2f, 0x2f, 0xf1,
  0x3d, 0xf8, 0xa8, 0xda, 0x35, 0x29, 0xb1, 0x45, 0xfd, 0xa8, 0x3e, 0x1f,
  0x0b, 0xbf, 0x04, 0x38, 0xb4, 0x24, 0xea, 0x30, 0xc0, 0x5e, 0x01, 0x41,
  0x89, 0x44, 0x25, 0x81, 0xd9, 0x9b, 0xad, 0x28, 0xd1, 0xa0, 0x93, 0x23,
  0x26, 0x1b, 0xd6, 0xb8, 0x02, 0xe1, 0x48, 0xd4, 0xd2, 0x04, 0x02, 0xa5,
  0xa1, 0xa9, 0x4d, 0x56, 0xa3, 0xab, 0x8b, 0xd5, 0xcc, 0xb8, 0xdd, 0x0d,
  0xfd, 0x97, 0x12, 0x0a, 0xac, 0x41, 0x63, 0x07, 0xee, 0x22, 0xf5, 0x25,
  0xca, 0xa7, 0x0e, 0xa4, 0x10, 0x5f, 0x0d, 0x93, 0xbf, 0x27, 0xcc, 0xb6,
  0x01, 0xef, 0x4a, 0x06, 0x2c, 0xcb, 0x4f, 0xc4, 0x31, 0x16, 0xf4, 0x5a,
  0xb6, 0x14, 0x35, 0xce, 0x05, 0x09, 0x44, 0x9f, 0x07, 0x2d, 0x96, 0x01,
  0xd7, 0x4b, 0xa0, 0x3a, 0xb3, 0xff, 0x8e, 0x98, 0xfe, 0x98, 0xb6, 0x26,
  0x31, 0xe4, 0xcc, 0x38, 0xee, 0xa6, 0x48, 0xab, 0x97, 0xf4, 0x8f, 0xba,
  0x04, 0xdd, 0xce, 0x51, 0x4f, 0xd7, 0x32, 0xbc, 0xd5, 0xe9, 0xbb, 0x36,
  0xe7, 0xcb, 0xb9, 0xa8, 0x9d, 0x23, 0x29, 0xb0, 0x98, 0x47, 0x31, 0x36,
  0x5a, 0xf9, 0xe2, 0xdb, 0x28, 0xef, 0xdf, 0x4a, 0x40, 0x38, 0x26, 0x4e,
  0x0c, 0x04, 0xf6, 0xe9, 0xf3, 0x0f, 0xca, 0xd8, 0xce, 0xd3, 0xc0, 0xd9,
  0x0c, 0xd9, 0xcd, 0x21, 0xe7, 0x38, 0x27, 0xe8, 0x46, 0x15, 0x0a, 0xfd,
  0xec, 0x21, 0x36, 0xd3, 0xc3, 0x0a, 0xd7, 0xf7, 0x3a, 0xed, 0x3b, 0x1e,
  0xfc, 0xe8, 0x19, 0x28, 0xe6, 0x26, 0x07, 0x25, 0x2b, 0x2c, 0xc1, 0x24,
  0xfd, 0xec, 0x33, 0x12, 0xd4, 0xfb, 0x17, 0x26, 0x3d, 0x09, 0x0c, 0x46,
  0x4c, 0x0c, 0x10, 0x1f, 0xe7, 0xed, 0xe1, 0x33, 0x09, 0xcf, 0x03, 0x32,
  0xd0, 0xeb, 0xf0, 0x05, 0x2a, 0x25, 0x3c, 0xfa, 0x1a, 0x3d, 0x3e, 0xdc,
  0xfb, 0xe8, 0x1d, 0x2b, 0xe4, 0x0d, 0xfd, 0xe1, 0xde, 0xc5, 0xf7, 0xdf,
  0xa6, 0x14, 0xec, 0xfc, 0xc3, 0xb3, 0xde, 0xd0, 0xf3, 0xf0, 0xff, 0x2d,
  0xf9, 0xc6, 0xf0, 0xf7, 0xcf, 0xcc, 0xeb, 0xde, 0x10, 0xfe, 0x22, 0x00,
  0x43, 0x27, 0xe3, 0x03, 0x12, 0x2b, 0x0d, 0x04, 0xc3, 0xab, 0xdb, 0x1b,
  0x37, 0x2a, 0xf3, 0xfa, 0x09, 0x3c, 0x53, 0x35, 0x35, 0x0c, 0x14, 0x0b,
  0x05, 0x77, 0x09, 0xd7, 0xff, 0xd4, 0xb1, 0xf1, 0xe3, 0x1f, 0xe4, 0x10,
  0x25, 0x1f, 0x1b, 0x25, 0xe3, 0x36, 0x2e, 0x1f, 0xe7, 0x38, 0x0d, 0xfb,
  0xe4, 0xfb, 0x2f, 0x0c, 0xf3, 0x28, 0xda, 0x00, 0x19, 0xc3, 0xe8, 0x00,
  0xd5, 0x26, 0x0c, 0x27, 0x00, 0x2e, 0x26, 0xf5, 0xdd, 0xe6, 0x05, 0xdd,
  0xd5, 0xd8, 0x12, 0x2c, 0x02, 0x43, 0x05, 0xef, 0x2f, 0x0f, 0xcc, 0x11,
  0x14, 0x56, 0x0c, 0x1b, 0xee, 0x9a, 0x81, 0x20, 0x24, 0xe7, 0xea, 0x1c,
  0x48, 0xdf, 0x4b, 0xf4, 0x24, 0x2f, 0x1f, 0xfd, 0x00, 0x13, 0x0c, 0xe5,
  0xe7, 0x32, 0x3f, 0xd6, 0xb4, 0xd4, 0xb8, 0xc4, 0xaf, 0xf3, 0x1e, 0x13,
  0x32, 0x30, 0x1a, 0xdf, 0x6b, 0x56, 0xe4, 0x34, 0xf4, 0x6a, 0x40, 0xed,
  0xfd, 0xea, 0x0f, 0xf9, 0x57, 0xdf, 0xe4, 0xee, 0xc7, 0x4c, 0xf5, 0x25,
  0xf5, 0x54, 0xc9, 0x02, 0xd7, 0x1c, 0xc0, 0x3d, 0xf4, 0x0e, 0x27, 0x53,
  0xdd, 0x37, 0xfc, 0x6a, 0x5c, 0xe5, 0x02, 0xe4, 0x31, 0x25, 0xea, 0x20,
  0x24, 0xe5, 0xf9, 0xbf, 0x28, 0xdd, 0x0d, 0xcc, 0xe6, 0xfe, 0xd7, 0x2f,
  0x6a, 0x5a, 0x48, 0x19, 0x47, 0x5c, 0x50, 0x1c, 0xd2, 0xf7, 0xbb, 0x25,
  0xda, 0x25, 0xb5, 0xbc, 0xfa, 0x11, 0xca, 0xf3, 0x09, 0x54, 0xdb, 0x08,
  0x21, 0xdb, 0xa7, 0xb3, 0xd3, 0xfb, 0xec, 0x37, 0xe9, 0x15, 0xf7, 0xad,
  0x09, 0x11, 0x20, 0x25, 0xc5, 0xe8, 0x71, 0x27, 0x2e, 0xcb, 0xce, 0x2e,
  0xd0, 0x14, 0x1a, 0xc5, 0xdd, 0x22, 0xf2, 0xea, 0x21, 0x1e, 0x65, 0x2f,
  0x08, 0x25, 0x01, 0x40, 0x10, 0x32, 0x56, 0x3a, 0x14, 0x7f, 0xcd, 0xe3,
  0xee, 0x30, 0x15, 0x19, 0xcc, 0xc6, 0xef, 0x0d, 0xe7, 0xce, 0xeb, 0x11,
  0xdd, 0x09, 0xf9, 0x2a, 0x05, 0xea, 0xf9, 0xef, 0x0b, 0x1d, 0x0b, 0xf2,
  0xd4, 0x08, 0xc4, 0xa6, 0x16, 0xc0, 0xaa, 0xad, 0x95, 0x35, 0x49, 0x37,
  0x5d, 0x4b, 0x28, 0x00, 0xda, 0xd6, 0x2b, 0x0e, 0x2e, 0x25, 0xe1, 0x4a,
  0x25, 0xfc, 0x0a, 0x32, 0x22, 0xf3, 0x02, 0xe4, 0xc4, 0xaa, 0xb9, 0xe6,
  0x30, 0x88, 0xd5, 0xf4, 0xca, 0xce, 0xe0, 0x05, 0x03, 0xc1, 0xc7, 0x11,
  0xfc, 0x33, 0xe5, 0xe1, 0xbc, 0xc6, 0x3d, 0xcf, 0x1a, 0x65, 0xd0, 0xe4,
